{
  "version": "1.0",
  "truncation": null,
  "padding": null,
  "added_tokens": [
    {
      "id": 0,
      "content": "[PAD]",
      "single_word": false,
      "lstrip": false,
      "rstrip": false,
      "normalized": false,
      "special": true
    },
    {
      "id": 1,
      "content": "[UNK]",
      "single_word": false,
      "lstrip": false,
      "rstrip": false,
      "normalized": false,
      "special": true
    },
    {
      "id": 2,
      "content": "[CLS]",
      "single_word": false,
      "lstrip": false,
      "rstrip": false,
      "normalized": false,
      "special": true
    },
    {
      "id": 3,
      "content": "[SEP]",
      "single_word": false,
      "lstrip": false,
      "rstrip": false,
      "normalized": false,
      "special": true
    },
    {
      "id": 4,
      "content": "[MASK]",
      "single_word": false,
      "lstrip": false,
      "rstrip": false,
      "normalized": false,
      "special": true
    }
  ],
  "normalizer": {
    "type": "BertNormalizer",
    "clean_text": true,
    "handle_chinese_chars": true,
    "strip_accents": null,
    "lowercase": false
  },
  "pre_tokenizer": {
    "type": "BertPreTokenizer"
  },
  "post_processor": {
    "type": "TemplateProcessing",
    "single": [
      {
        "SpecialToken": {
          "id": "[CLS]",
          "type_id": 0
        }
      },
      {
        "Sequence": {
          "id": "A",
          "type_id": 0
        }
      },
      {
        "SpecialToken": {
          "id": "[SEP]",
          "type_id": 0
        }
      }
    ],
    "pair": [
      {
        "SpecialToken": {
          "id": "[CLS]",
          "type_id": 0
        }
      },
      {
        "Sequence": {
          "id": "A",
          "type_id": 0
        }
      },
      {
        "SpecialToken": {
          "id": "[SEP]",
          "type_id": 0
        }
      },
      {
        "Sequence": {
          "id": "B",
          "type_id": 1
        }
      },
      {
        "SpecialToken": {
          "id": "[SEP]",
          "type_id": 1
        }
      }
    ],
    "special_tokens": {
      "[CLS]": {
        "id": "[CLS]",
        "ids": [
          2
        ],
        "tokens": [
          "[CLS]"
        ]
      },
      "[SEP]": {
        "id": "[SEP]",
        "ids": [
          3
        ],
        "tokens": [
          "[SEP]"
        ]
      }
    }
  },
  "decoder": {
    "type": "WordPiece",
    "prefix": "##",
    "cleanup": true
  },
  "model": {
    "type": "WordPiece",
    "unk_token": "[UNK]",
    "continuing_subword_prefix": "##",
    "max_input_chars_per_word": 100,
    "vocab": {
      "[PAD]": 0,
      "[UNK]": 1,
      "[CLS]": 2,
      "[SEP]": 3,
      "[MASK]": 4,
      "!": 5,
      "\"": 6,
      "#": 7,
      "$": 8,
      "%": 9,
      "'": 10,
      "(": 11,
      ")": 12,
      "*": 13,
      "+": 14,
      ",": 15,
      "-": 16,
      ".": 17,
      "/": 18,
      "0": 19,
      "1": 20,
      "2": 21,
      "3": 22,
      "4": 23,
      "5": 24,
      "6": 25,
      "7": 26,
      "8": 27,
      "9": 28,
      ":": 29,
      ";": 30,
      "=": 31,
      "?": 32,
      "@": 33,
      "A": 34,
      "B": 35,
      "C": 36,
      "D": 37,
      "E": 38,
      "F": 39,
      "G": 40,
      "H": 41,
      "I": 42,
      "J": 43,
      "K": 44,
      "L": 45,
      "M": 46,
      "N": 47,
      "O": 48,
      "P": 49,
      "Q": 50,
      "R": 51,
      "S": 52,
      "T": 53,
      "U": 54,
      "V": 55,
      "W": 56,
      "X": 57,
      "Y": 58,
      "Z": 59,
      "[": 60,
      "\\": 61,
      "]": 62,
      "^": 63,
      "_": 64,
      "`": 65,
      "a": 66,
      "b": 67,
      "c": 68,
      "d": 69,
      "e": 70,
      "f": 71,
      "g": 72,
      "h": 73,
      "i": 74,
      "j": 75,
      "k": 76,
      "l": 77,
      "m": 78,
      "n": 79,
      "o": 80,
      "p": 81,
      "q": 82,
      "r": 83,
      "s": 84,
      "t": 85,
      "u": 86,
      "v": 87,
      "w": 88,
      "x": 89,
      "y": 90,
      "z": 91,
      "{": 92,
      "|": 93,
      "}": 94,
      "~": 95,
      "®": 96,
      "·": 97,
      "‼": 98,
      "⁉": 99,
      "⃣": 100,
      "™": 101,
      "ℹ": 102,
      "↔": 103,
      "↗": 104,
      "↘": 105,
      "↙": 106,
      "∼": 107,
      "⏪": 108,
      "▪": 109,
      "▶": 110,
      "◀": 111,
      "☀": 112,
      "☄": 113,
      "☎": 114,
      "☑": 115,
      "☔": 116,
      "☘": 117,
      "☝": 118,
      "☠": 119,
      "☢": 120,
      "☣": 121,
      "☹": 122,
      "☺": 123,
      "♀": 124,
      "♂": 125,
      "♠": 126,
      "♣": 127,
      "♥": 128,
      "♦": 129,
      "♨": 130,
      "⚔": 131,
      "⚖": 132,
      "⚠": 133,
      "⚡": 134,
      "⚫": 135,
      "⚰": 136,
      "⛄": 137,
      "⛏": 138,
      "⛔": 139,
      "⛳": 140,
      "✂": 141,
      "✅": 142,
      "✈": 143,
      "✊": 144,
      "✋": 145,
      "✌": 146,
      "✔": 147,
      "✖": 148,
      "✨": 149,
      "✳": 150,
      "✴": 151,
      "❄": 152,
      "❌": 153,
      "❎": 154,
      "❓": 155,
      "❔": 156,
      "❕": 157,
      "❗": 158,
      "❣": 159,
      "❤": 160,
      "➕": 161,
      "➖": 162,
      "➡": 163,
      "➰": 164,
      "⬅": 165,
      "⬆": 166,
      "⬇": 167,
      "⬛": 168,
      "⭐": 169,
      "⭕": 170,
      "〰": 171,
      "ㄱ": 172,
      "ㄲ": 173,
      "ㄳ": 174,
      "ㄴ": 175,
      "ㄷ": 176,
      "ㄸ": 177,
      "ㄹ": 178,
      "ㄺ": 179,
      "ㄻ": 180,
      "ㅀ": 181,
      "ㅁ": 182,
      "ㅂ": 183,
      "ㅃ": 184,
      "ㅄ": 185,
      "ㅅ": 186,
      "ㅆ": 187,
      "ㅇ": 188,
      "ㅈ": 189,
      "ㅉ": 190,
      "ㅊ": 191,
      "ㅋ": 192,
      "ㅌ": 193,
      "ㅍ": 194,
      "ㅎ": 195,
      "㊗": 196,
      "가": 197,
      "각": 198,
      "갂": 199,
      "갃": 200,
      "간": 201,
      "갆": 202,
      "갇": 203,
      "갈": 204,
      "갉": 205,
      "갋": 206,
      "갏": 207,
      "감": 208,
      "갑": 209,
      "값": 210,
      "갓": 211,
      "갔": 212,
      "강": 213,
      "갖": 214,
      "갗": 215,
      "갘": 216,
      "같": 217,
      "갚": 218,
      "갛": 219,
      "개": 220,
      "객": 221,
      "갠": 222,
      "갢": 223,
      "갣": 224,
      "갤": 225,
      "갬": 226,
      "갭": 227,
      "갮": 228,
      "갯": 229,
      "갰": 230,
      "갱": 231,
      "갲": 232,
      "갴": 233,
      "갵": 234,
      "갷": 235,
      "갸": 236,
      "갹": 237,
      "갼": 238,
      "걀": 239,
      "걈": 240,
      "걉": 241,
      "걌": 242,
      "걍": 243,
      "걑": 244,
      "걔": 245,
      "걘": 246,
      "걩": 247,
      "거": 248,
      "걱": 249,
      "걲": 250,
      "건": 251,
      "걵": 252,
      "걷": 253,
      "걸": 254,
      "검": 255,
      "겁": 256,
      "겂": 257,
      "것": 258,
      "겄": 259,
      "겅": 260,
      "겆": 261,
      "겇": 262,
      "겈": 263,
      "겉": 264,
      "겊": 265,
      "겋": 266,
      "게": 267,
      "겍": 268,
      "겎": 269,
      "겐": 270,
      "겓": 271,
      "겔": 272,
      "겜": 273,
      "겝": 274,
      "겟": 275,
      "겠": 276,
      "겡": 277,
      "겢": 278,
      "겤": 279,
      "겧": 280,
      "겨": 281,
      "격": 282,
      "겪": 283,
      "견": 284,
      "겯": 285,
      "결": 286,
      "겸": 287,
      "겹": 288,
      "겻": 289,
      "겼": 290,
      "경": 291,
      "곀": 292,
      "곁": 293,
      "곂": 294,
      "곃": 295,
      "계": 296,
      "곅": 297,
      "곈": 298,
      "곌": 299,
      "곗": 300,
      "곘": 301,
      "곙": 302,
      "고": 303,
      "곡": 304,
      "곤": 305,
      "곧": 306,
      "골": 307,
      "곪": 308,
      "곬": 309,
      "곯": 310,
      "곰": 311,
      "곱": 312,
      "곳": 313,
      "공": 314,
      "곶": 315,
      "곷": 316,
      "곸": 317,
      "곹": 318,
      "곺": 319,
      "곻": 320,
      "과": 321,
      "곽": 322,
      "관": 323,
      "괁": 324,
      "괂": 325,
      "괄": 326,
      "괌": 327,
      "괏": 328,
      "광": 329,
      "괘": 330,
      "괙": 331,
      "괜": 332,
      "괞": 333,
      "괬": 334,
      "괭": 335,
      "괴": 336,
      "괵": 337,
      "괸": 338,
      "괼": 339,
      "굉": 340,
      "교": 341,
      "굑": 342,
      "굔": 343,
      "굘": 344,
      "굣": 345,
      "굥": 346,
      "구": 347,
      "국": 348,
      "굮": 349,
      "굯": 350,
      "군": 351,
      "굳": 352,
      "굴": 353,
      "굵": 354,
      "굶": 355,
      "굷": 356,
      "굻": 357,
      "굼": 358,
      "굽": 359,
      "굿": 360,
      "궁": 361,
      "궂": 362,
      "궃": 363,
      "궄": 364,
      "궅": 365,
      "궈": 366,
      "궉": 367,
      "권": 368,
      "궍": 369,
      "궐": 370,
      "궘": 371,
      "궙": 372,
      "궛": 373,
      "궜": 374,
      "궝": 375,
      "궤": 376,
      "궨": 377,
      "궸": 378,
      "궹": 379,
      "귀": 380,
      "귁": 381,
      "귄": 382,
      "귈": 383,
      "귐": 384,
      "귓": 385,
      "규": 386,
      "귝": 387,
      "균": 388,
      "귤": 389,
      "귱": 390,
      "그": 391,
      "극": 392,
      "근": 393,
      "귾": 394,
      "귿": 395,
      "글": 396,
      "긁": 397,
      "긂": 398,
      "긇": 399,
      "금": 400,
      "급": 401,
      "긋": 402,
      "긌": 403,
      "긍": 404,
      "긎": 405,
      "긐": 406,
      "긑": 407,
      "긒": 408,
      "긔": 409,
      "긕": 410,
      "긘": 411,
      "긜": 412,
      "긧": 413,
      "기": 414,
      "긱": 415,
      "긴": 416,
      "긷": 417,
      "길": 418,
      "긿": 419,
      "김": 420,
      "깁": 421,
      "깂": 422,
      "깃": 423,
      "깄": 424,
      "깅": 425,
      "깆": 426,
      "깈": 427,
      "깉": 428,
      "깊": 429,
      "깋": 430,
      "까": 431,
      "깍": 432,
      "깎": 433,
      "깐": 434,
      "깔": 435,
      "깜": 436,
      "깝": 437,
      "깞": 438,
      "깟": 439,
      "깠": 440,
      "깡": 441,
      "깢": 442,
      "깤": 443,
      "깥": 444,
      "깦": 445,
      "깧": 446,
      "깨": 447,
      "깩": 448,
      "깬": 449,
      "깰": 450,
      "깸": 451,
      "깹": 452,
      "깻": 453,
      "깼": 454,
      "깽": 455,
      "꺄": 456,
      "꺅": 457,
      "꺌": 458,
      "꺙": 459,
      "꺠": 460,
      "꺵": 461,
      "꺼": 462,
      "꺽": 463,
      "꺾": 464,
      "껀": 465,
      "껄": 466,
      "껌": 467,
      "껍": 468,
      "껏": 469,
      "껐": 470,
      "껑": 471,
      "껒": 472,
      "껔": 473,
      "께": 474,
      "껙": 475,
      "껜": 476,
      "껨": 477,
      "껫": 478,
      "껬": 479,
      "껭": 480,
      "껰": 481,
      "껴": 482,
      "껵": 483,
      "껶": 484,
      "껸": 485,
      "껼": 486,
      "꼅": 487,
      "꼇": 488,
      "꼈": 489,
      "꼉": 490,
      "꼐": 491,
      "꼬": 492,
      "꼭": 493,
      "꼮": 494,
      "꼰": 495,
      "꼳": 496,
      "꼴": 497,
      "꼻": 498,
      "꼼": 499,
      "꼽": 500,
      "꼿": 501,
      "꽁": 502,
      "꽂": 503,
      "꽃": 504,
      "꽄": 505,
      "꽅": 506,
      "꽈": 507,
      "꽉": 508,
      "꽊": 509,
      "꽌": 510,
      "꽐": 511,
      "꽝": 512,
      "꽤": 513,
      "꽥": 514,
      "꽹": 515,
      "꾀": 516,
      "꾁": 517,
      "꾐": 518,
      "꾕": 519,
      "꾜": 520,
      "꾤": 521,
      "꾸": 522,
      "꾹": 523,
      "꾼": 524,
      "꾾": 525,
      "꾿": 526,
      "꿀": 527,
      "꿁": 528,
      "꿂": 529,
      "꿃": 530,
      "꿇": 531,
      "꿈": 532,
      "꿉": 533,
      "꿋": 534,
      "꿍": 535,
      "꿎": 536,
      "꿏": 537,
      "꿑": 538,
      "꿔": 539,
      "꿘": 540,
      "꿜": 541,
      "꿧": 542,
      "꿨": 543,
      "꿩": 544,
      "꿰": 545,
      "꿱": 546,
      "꿴": 547,
      "뀌": 548,
      "뀐": 549,
      "뀔": 550,
      "뀜": 551,
      "뀝": 552,
      "뀠": 553,
      "뀡": 554,
      "뀨": 555,
      "뀬": 556,
      "끄": 557,
      "끅": 558,
      "끈": 559,
      "끊": 560,
      "끋": 561,
      "끌": 562,
      "끍": 563,
      "끓": 564,
      "끔": 565,
      "끕": 566,
      "끗": 567,
      "끘": 568,
      "끙": 569,
      "끚": 570,
      "끛": 571,
      "끝": 572,
      "끠": 573,
      "끤": 574,
      "끼": 575,
      "끽": 576,
      "낀": 577,
      "낂": 578,
      "낃": 579,
      "낄": 580,
      "낌": 581,
      "낍": 582,
      "낏": 583,
      "낑": 584,
      "낔": 585,
      "낗": 586,
      "나": 587,
      "낙": 588,
      "낚": 589,
      "낛": 590,
      "난": 591,
      "낝": 592,
      "낞": 593,
      "낟": 594,
      "날": 595,
      "낡": 596,
      "낧": 597,
      "남": 598,
      "납": 599,
      "낫": 600,
      "났": 601,
      "낭": 602,
      "낮": 603,
      "낯": 604,
      "낰": 605,
      "낱": 606,
      "낲": 607,
      "낳": 608,
      "내": 609,
      "낵": 610,
      "낸": 611,
      "낼": 612,
      "냄": 613,
      "냅": 614,
      "냇": 615,
      "냈": 616,
      "냉": 617,
      "냊": 618,
      "냌": 619,
      "냐": 620,
      "냑": 621,
      "냔": 622,
      "냘": 623,
      "냠": 624,
      "냡": 625,
      "냣": 626,
      "냤": 627,
      "냥": 628,
      "냦": 629,
      "냨": 630,
      "냬": 631,
      "냰": 632,
      "냼": 633,
      "너": 634,
      "넉": 635,
      "넋": 636,
      "넌": 637,
      "넎": 638,
      "널": 639,
      "넑": 640,
      "넒": 641,
      "넓": 642,
      "넖": 643,
      "넗": 644,
      "넘": 645,
      "넙": 646,
      "넚": 647,
      "넛": 648,
      "넜": 649,
      "넝": 650,
      "넠": 651,
      "넢": 652,
      "넣": 653,
      "네": 654,
      "넥": 655,
      "넨": 656,
      "넫": 657,
      "넬": 658,
      "넴": 659,
      "넵": 660,
      "넷": 661,
      "넸": 662,
      "넹": 663,
      "넺": 664,
      "넼": 665,
      "넽": 666,
      "넿": 667,
      "녀": 668,
      "녁": 669,
      "녂": 670,
      "년": 671,
      "녅": 672,
      "녆": 673,
      "녈": 674,
      "념": 675,
      "녓": 676,
      "녔": 677,
      "녕": 678,
      "녘": 679,
      "녛": 680,
      "녜": 681,
      "녠": 682,
      "녤": 683,
      "녴": 684,
      "노": 685,
      "녹": 686,
      "논": 687,
      "녾": 688,
      "녿": 689,
      "놀": 690,
      "놁": 691,
      "놈": 692,
      "놉": 693,
      "놋": 694,
      "놌": 695,
      "농": 696,
      "놐": 697,
      "높": 698,
      "놓": 699,
      "놔": 700,
      "놘": 701,
      "놜": 702,
      "놧": 703,
      "놨": 704,
      "놬": 705,
      "놯": 706,
      "놰": 707,
      "뇀": 708,
      "뇌": 709,
      "뇐": 710,
      "뇜": 711,
      "뇟": 712,
      "뇠": 713,
      "뇨": 714,
      "뇬": 715,
      "뇰": 716,
      "뇸": 717,
      "뇽": 718,
      "누": 719,
      "눅": 720,
      "눈": 721,
      "눌": 722,
      "눍": 723,
      "눔": 724,
      "눕": 725,
      "눗": 726,
      "눙": 727,
      "눜": 728,
      "눞": 729,
      "눟": 730,
      "눠": 731,
      "눤": 732,
      "눨": 733,
      "눰": 734,
      "눴": 735,
      "눼": 736,
      "뉍": 737,
      "뉘": 738,
      "뉜": 739,
      "뉠": 740,
      "뉨": 741,
      "뉩": 742,
      "뉴": 743,
      "뉸": 744,
      "뉼": 745,
      "늄": 746,
      "늉": 747,
      "느": 748,
      "늑": 749,
      "는": 750,
      "늕": 751,
      "늗": 752,
      "늘": 753,
      "늙": 754,
      "늟": 755,
      "늠": 756,
      "늡": 757,
      "늣": 758,
      "능": 759,
      "늦": 760,
      "늧": 761,
      "늨": 762,
      "늩": 763,
      "늪": 764,
      "늫": 765,
      "늬": 766,
      "늰": 767,
      "늼": 768,
      "니": 769,
      "닉": 770,
      "닊": 771,
      "닌": 772,
      "닏": 773,
      "닐": 774,
      "님": 775,
      "닙": 776,
      "닚": 777,
      "닛": 778,
      "닜": 779,
      "닝": 780,
      "닞": 781,
      "닟": 782,
      "닠": 783,
      "닢": 784,
      "닣": 785,
      "다": 786,
      "닥": 787,
      "닦": 788,
      "단": 789,
      "닪": 790,
      "닫": 791,
      "달": 792,
      "닭": 793,
      "닮": 794,
      "닯": 795,
      "닳": 796,
      "담": 797,
      "답": 798,
      "닶": 799,
      "닷": 800,
      "닸": 801,
      "당": 802,
      "닺": 803,
      "닻": 804,
      "닼": 805,
      "닽": 806,
      "닾": 807,
      "닿": 808,
      "대": 809,
      "댁": 810,
      "댄": 811,
      "댇": 812,
      "댈": 813,
      "댐": 814,
      "댑": 815,
      "댓": 816,
      "댔": 817,
      "댕": 818,
      "댖": 819,
      "댗": 820,
      "댘": 821,
      "댙": 822,
      "댛": 823,
      "댜": 824,
      "댠": 825,
      "댤": 826,
      "댭": 827,
      "댯": 828,
      "댱": 829,
      "댸": 830,
      "덋": 831,
      "더": 832,
      "덕": 833,
      "던": 834,
      "덛": 835,
      "덜": 836,
      "덟": 837,
      "덤": 838,
      "덥": 839,
      "덧": 840,
      "덨": 841,
      "덩": 842,
      "덪": 843,
      "덫": 844,
      "덮": 845,
      "덯": 846,
      "데": 847,
      "덱": 848,
      "덴": 849,
      "덷": 850,
      "델": 851,
      "뎀": 852,
      "뎁": 853,
      "뎃": 854,
      "뎄": 855,
      "뎅": 856,
      "뎆": 857,
      "뎈": 858,
      "뎌": 859,
      "뎐": 860,
      "뎔": 861,
      "뎜": 862,
      "뎟": 863,
      "뎠": 864,
      "뎡": 865,
      "뎨": 866,
      "도": 867,
      "독": 868,
      "돈": 869,
      "돋": 870,
      "돌": 871,
      "돔": 872,
      "돕": 873,
      "돗": 874,
      "동": 875,
      "돚": 876,
      "돛": 877,
      "돜": 878,
      "돝": 879,
      "돞": 880,
      "돟": 881,
      "돠": 882,
      "돤": 883,
      "돨": 884,
      "돰": 885,
      "돱": 886,
      "돳": 887,
      "돴": 888,
      "돵": 889,
      "돼": 890,
      "됀": 891,
      "됄": 892,
      "됌": 893,
      "됍": 894,
      "됏": 895,
      "됐": 896,
      "됑": 897,
      "됒": 898,
      "됗": 899,
      "되": 900,
      "됙": 901,
      "된": 902,
      "될": 903,
      "됨": 904,
      "됩": 905,
      "됫": 906,
      "됬": 907,
      "됭": 908,
      "됮": 909,
      "됴": 910,
      "됵": 911,
      "됸": 912,
      "됻": 913,
      "됼": 914,
      "둇": 915,
      "둉": 916,
      "두": 917,
      "둑": 918,
      "둔": 919,
      "둗": 920,
      "둘": 921,
      "둟": 922,
      "둠": 923,
      "둡": 924,
      "둣": 925,
      "둥": 926,
      "둬": 927,
      "둰": 928,
      "둿": 929,
      "뒀": 930,
      "뒈": 931,
      "뒛": 932,
      "뒝": 933,
      "뒤": 934,
      "뒨": 935,
      "뒬": 936,
      "뒷": 937,
      "뒸": 938,
      "뒹": 939,
      "뒺": 940,
      "듀": 941,
      "듁": 942,
      "듄": 943,
      "듈": 944,
      "듐": 945,
      "듕": 946,
      "드": 947,
      "득": 948,
      "든": 949,
      "듡": 950,
      "듣": 951,
      "들": 952,
      "듥": 953,
      "듦": 954,
      "듧": 955,
      "듨": 956,
      "듩": 957,
      "듪": 958,
      "듫": 959,
      "듬": 960,
      "듭": 961,
      "듯": 962,
      "등": 963,
      "듲": 964,
      "듳": 965,
      "듴": 966,
      "듵": 967,
      "듷": 968,
      "듸": 969,
      "듼": 970,
      "딀": 971,
      "딋": 972,
      "딍": 973,
      "디": 974,
      "딕": 975,
      "딘": 976,
      "딛": 977,
      "딜": 978,
      "딝": 979,
      "딤": 980,
      "딥": 981,
      "딧": 982,
      "딨": 983,
      "딩": 984,
      "딪": 985,
      "딫": 986,
      "딬": 987,
      "딮": 988,
      "따": 989,
      "딱": 990,
      "딲": 991,
      "딴": 992,
      "딷": 993,
      "딸": 994,
      "딹": 995,
      "땀": 996,
      "땁": 997,
      "땃": 998,
      "땄": 999,
      "땅": 1000,
      "땈": 1001,
      "땋": 1002,
      "때": 1003,
      "땍": 1004,
      "땐": 1005,
      "땔": 1006,
      "땜": 1007,
      "땝": 1008,
      "땟": 1009,
      "땠": 1010,
      "땡": 1011,
      "땨": 1012,
      "땩": 1013,
      "땬": 1014,
      "땰": 1015,
      "땸": 1016,
      "땽": 1017,
      "떄": 1018,
      "떈": 1019,
      "떔": 1020,
      "떙": 1021,
      "떠": 1022,
      "떡": 1023,
      "떢": 1024,
      "떤": 1025,
      "떧": 1026,
      "떨": 1027,
      "떫": 1028,
      "떯": 1029,
      "떰": 1030,
      "떱": 1031,
      "떳": 1032,
      "떴": 1033,
      "떵": 1034,
      "떻": 1035,
      "떼": 1036,
      "떽": 1037,
      "뗀": 1038,
      "뗄": 1039,
      "뗌": 1040,
      "뗍": 1041,
      "뗏": 1042,
      "뗐": 1043,
      "뗑": 1044,
      "뗔": 1045,
      "뗗": 1046,
      "뗘": 1047,
      "뗜": 1048,
      "뗠": 1049,
      "뗳": 1050,
      "뗴": 1051,
      "또": 1052,
      "똑": 1053,
      "똒": 1054,
      "똔": 1055,
      "똗": 1056,
      "똘": 1057,
      "똟": 1058,
      "똠": 1059,
      "똣": 1060,
      "똥": 1061,
      "똫": 1062,
      "똬": 1063,
      "똭": 1064,
      "똴": 1065,
      "뙇": 1066,
      "뙈": 1067,
      "뙤": 1068,
      "뙨": 1069,
      "뚀": 1070,
      "뚕": 1071,
      "뚜": 1072,
      "뚝": 1073,
      "뚠": 1074,
      "뚣": 1075,
      "뚤": 1076,
      "뚫": 1077,
      "뚯": 1078,
      "뚱": 1079,
      "뚷": 1080,
      "뚸": 1081,
      "뛔": 1082,
      "뛧": 1083,
      "뛰": 1084,
      "뛴": 1085,
      "뛸": 1086,
      "뜀": 1087,
      "뜁": 1088,
      "뜌": 1089,
      "뜡": 1090,
      "뜨": 1091,
      "뜩": 1092,
      "뜬": 1093,
      "뜯": 1094,
      "뜰": 1095,
      "뜷": 1096,
      "뜸": 1097,
      "뜹": 1098,
      "뜻": 1099,
      "뜽": 1100,
      "뜾": 1101,
      "띁": 1102,
      "띄": 1103,
      "띈": 1104,
      "띌": 1105,
      "띔": 1106,
      "띠": 1107,
      "띡": 1108,
      "띤": 1109,
      "띨": 1110,
      "띰": 1111,
      "띱": 1112,
      "띵": 1113,
      "라": 1114,
      "락": 1115,
      "란": 1116,
      "랂": 1117,
      "랃": 1118,
      "랄": 1119,
      "랋": 1120,
      "람": 1121,
      "랍": 1122,
      "랏": 1123,
      "랐": 1124,
      "랑": 1125,
      "랒": 1126,
      "랓": 1127,
      "랔": 1128,
      "랕": 1129,
      "랖": 1130,
      "랗": 1131,
      "래": 1132,
      "랙": 1133,
      "랜": 1134,
      "랟": 1135,
      "랠": 1136,
      "램": 1137,
      "랩": 1138,
      "랫": 1139,
      "랬": 1140,
      "랭": 1141,
      "랰": 1142,
      "랲": 1143,
      "랳": 1144,
      "랴": 1145,
      "략": 1146,
      "랸": 1147,
      "랼": 1148,
      "럄": 1149,
      "럇": 1150,
      "럈": 1151,
      "량": 1152,
      "럐": 1153,
      "럤": 1154,
      "러": 1155,
      "럭": 1156,
      "런": 1157,
      "럱": 1158,
      "럲": 1159,
      "럴": 1160,
      "럼": 1161,
      "럽": 1162,
      "럾": 1163,
      "럿": 1164,
      "렀": 1165,
      "렁": 1166,
      "렂": 1167,
      "렄": 1168,
      "렆": 1169,
      "렇": 1170,
      "레": 1171,
      "렉": 1172,
      "렌": 1173,
      "렐": 1174,
      "렘": 1175,
      "렙": 1176,
      "렛": 1177,
      "렜": 1178,
      "렝": 1179,
      "렠": 1180,
      "렣": 1181,
      "려": 1182,
      "력": 1183,
      "련": 1184,
      "렫": 1185,
      "렬": 1186,
      "렴": 1187,
      "렵": 1188,
      "렷": 1189,
      "렸": 1190,
      "령": 1191,
      "렺": 1192,
      "렼": 1193,
      "렿": 1194,
      "례": 1195,
      "롁": 1196,
      "롄": 1197,
      "롐": 1198,
      "롓": 1199,
      "롕": 1200,
      "로": 1201,
      "록": 1202,
      "론": 1203,
      "롣": 1204,
      "롤": 1205,
      "롬": 1206,
      "롭": 1207,
      "롯": 1208,
      "롱": 1209,
      "롲": 1210,
      "롳": 1211,
      "롴": 1212,
      "롶": 1213,
      "롷": 1214,
      "롸": 1215,
      "롹": 1216,
      "롼": 1217,
      "뢀": 1218,
      "뢈": 1219,
      "뢉": 1220,
      "뢍": 1221,
      "뢐": 1222,
      "뢔": 1223,
      "뢰": 1224,
      "뢱": 1225,
      "뢴": 1226,
      "룁": 1227,
      "료": 1228,
      "룍": 1229,
      "룐": 1230,
      "룔": 1231,
      "룜": 1232,
      "룟": 1233,
      "룡": 1234,
      "루": 1235,
      "룩": 1236,
      "룬": 1237,
      "룰": 1238,
      "룸": 1239,
      "룹": 1240,
      "룻": 1241,
      "룽": 1242,
      "뤂": 1243,
      "뤄": 1244,
      "뤈": 1245,
      "뤌": 1246,
      "뤗": 1247,
      "뤘": 1248,
      "뤠": 1249,
      "뤡": 1250,
      "뤼": 1251,
      "륀": 1252,
      "륄": 1253,
      "륍": 1254,
      "류": 1255,
      "륙": 1256,
      "륜": 1257,
      "률": 1258,
      "륨": 1259,
      "륭": 1260,
      "르": 1261,
      "륵": 1262,
      "른": 1263,
      "륻": 1264,
      "를": 1265,
      "릂": 1266,
      "름": 1267,
      "릅": 1268,
      "릇": 1269,
      "릉": 1270,
      "릊": 1271,
      "릌": 1272,
      "릍": 1273,
      "릎": 1274,
      "릏": 1275,
      "릐": 1276,
      "릔": 1277,
      "릫": 1278,
      "리": 1279,
      "릭": 1280,
      "린": 1281,
      "릳": 1282,
      "릴": 1283,
      "림": 1284,
      "립": 1285,
      "릿": 1286,
      "맀": 1287,
      "링": 1288,
      "맂": 1289,
      "맄": 1290,
      "맆": 1291,
      "맇": 1292,
      "마": 1293,
      "막": 1294,
      "맊": 1295,
      "만": 1296,
      "맍": 1297,
      "많": 1298,
      "맏": 1299,
      "말": 1300,
      "맑": 1301,
      "맔": 1302,
      "맗": 1303,
      "맘": 1304,
      "맙": 1305,
      "맛": 1306,
      "맜": 1307,
      "망": 1308,
      "맞": 1309,
      "맟": 1310,
      "맠": 1311,
      "맡": 1312,
      "맢": 1313,
      "맣": 1314,
      "매": 1315,
      "맥": 1316,
      "맨": 1317,
      "맬": 1318,
      "맴": 1319,
      "맵": 1320,
      "맷": 1321,
      "맸": 1322,
      "맹": 1323,
      "맺": 1324,
      "맻": 1325,
      "맼": 1326,
      "맽": 1327,
      "먀": 1328,
      "먁": 1329,
      "먄": 1330,
      "먆": 1331,
      "먈": 1332,
      "먕": 1333,
      "먖": 1334,
      "먗": 1335,
      "먜": 1336,
      "머": 1337,
      "먹": 1338,
      "먺": 1339,
      "먼": 1340,
      "먽": 1341,
      "먾": 1342,
      "먿": 1343,
      "멀": 1344,
      "멈": 1345,
      "멉": 1346,
      "멊": 1347,
      "멋": 1348,
      "멌": 1349,
      "멍": 1350,
      "멎": 1351,
      "멏": 1352,
      "멐": 1353,
      "멓": 1354,
      "메": 1355,
      "멕": 1356,
      "멘": 1357,
      "멜": 1358,
      "멤": 1359,
      "멧": 1360,
      "멨": 1361,
      "멩": 1362,
      "며": 1363,
      "멱": 1364,
      "면": 1365,
      "멵": 1366,
      "멸": 1367,
      "몀": 1368,
      "몃": 1369,
      "몄": 1370,
      "명": 1371,
      "몆": 1372,
      "몇": 1373,
      "몈": 1374,
      "몋": 1375,
      "몌": 1376,
      "몐": 1377,
      "몡": 1378,
      "몣": 1379,
      "모": 1380,
      "목": 1381,
      "몪": 1382,
      "몫": 1383,
      "몬": 1384,
      "몯": 1385,
      "몰": 1386,
      "몱": 1387,
      "몴": 1388,
      "몸": 1389,
      "몹": 1390,
      "못": 1391,
      "몼": 1392,
      "몽": 1393,
      "몾": 1394,
      "몿": 1395,
      "뫃": 1396,
      "뫄": 1397,
      "뫈": 1398,
      "뫌": 1399,
      "뫙": 1400,
      "뫠": 1401,
      "뫼": 1402,
      "묏": 1403,
      "묘": 1404,
      "묙": 1405,
      "묜": 1406,
      "묠": 1407,
      "묫": 1408,
      "묭": 1409,
      "무": 1410,
      "묵": 1411,
      "묶": 1412,
      "묷": 1413,
      "문": 1414,
      "묹": 1415,
      "묻": 1416,
      "물": 1417,
      "묽": 1418,
      "뭄": 1419,
      "뭅": 1420,
      "뭇": 1421,
      "뭉": 1422,
      "뭊": 1423,
      "뭌": 1424,
      "뭍": 1425,
      "뭏": 1426,
      "뭐": 1427,
      "뭑": 1428,
      "뭔": 1429,
      "뭘": 1430,
      "뭠": 1431,
      "뭡": 1432,
      "뭣": 1433,
      "뭤": 1434,
      "뭥": 1435,
      "뭨": 1436,
      "뭫": 1437,
      "뭬": 1438,
      "뭰": 1439,
      "뮈": 1440,
      "뮌": 1441,
      "뮐": 1442,
      "뮙": 1443,
      "뮛": 1444,
      "뮝": 1445,
      "뮤": 1446,
      "뮥": 1447,
      "뮨": 1448,
      "뮬": 1449,
      "뮴": 1450,
      "뮷": 1451,
      "뮹": 1452,
      "므": 1453,
      "믁": 1454,
      "믄": 1455,
      "믇": 1456,
      "믈": 1457,
      "믐": 1458,
      "믓": 1459,
      "믕": 1460,
      "믜": 1461,
      "믠": 1462,
      "미": 1463,
      "믹": 1464,
      "민": 1465,
      "믽": 1466,
      "믾": 1467,
      "믿": 1468,
      "밀": 1469,
      "밈": 1470,
      "밉": 1471,
      "밋": 1472,
      "밌": 1473,
      "밍": 1474,
      "밎": 1475,
      "및": 1476,
      "밐": 1477,
      "밑": 1478,
      "밓": 1479,
      "바": 1480,
      "박": 1481,
      "밖": 1482,
      "반": 1483,
      "받": 1484,
      "발": 1485,
      "밝": 1486,
      "밞": 1487,
      "밟": 1488,
      "밠": 1489,
      "밢": 1490,
      "밣": 1491,
      "밤": 1492,
      "밥": 1493,
      "밦": 1494,
      "밧": 1495,
      "밨": 1496,
      "방": 1497,
      "밪": 1498,
      "밫": 1499,
      "밬": 1500,
      "밭": 1501,
      "밮": 1502,
      "밯": 1503,
      "배": 1504,
      "백": 1505,
      "밴": 1506,
      "밷": 1507,
      "밸": 1508,
      "뱀": 1509,
      "뱁": 1510,
      "뱃": 1511,
      "뱄": 1512,
      "뱅": 1513,
      "뱆": 1514,
      "뱉": 1515,
      "뱌": 1516,
      "뱍": 1517,
      "뱐": 1518,
      "뱓": 1519,
      "뱔": 1520,
      "뱜": 1521,
      "뱝": 1522,
      "뱡": 1523,
      "뱨": 1524,
      "뱸": 1525,
      "뱽": 1526,
      "버": 1527,
      "벅": 1528,
      "벆": 1529,
      "번": 1530,
      "벋": 1531,
      "벌": 1532,
      "벍": 1533,
      "벓": 1534,
      "범": 1535,
      "법": 1536,
      "벗": 1537,
      "벙": 1538,
      "벚": 1539,
      "벛": 1540,
      "벝": 1541,
      "벞": 1542,
      "베": 1543,
      "벡": 1544,
      "벤": 1545,
      "벧": 1546,
      "벨": 1547,
      "벰": 1548,
      "벱": 1549,
      "벳": 1550,
      "벴": 1551,
      "벵": 1552,
      "벸": 1553,
      "벹": 1554,
      "벼": 1555,
      "벽": 1556,
      "변": 1557,
      "별": 1558,
      "볌": 1559,
      "볍": 1560,
      "볏": 1561,
      "볐": 1562,
      "병": 1563,
      "볓": 1564,
      "볔": 1565,
      "볕": 1566,
      "볗": 1567,
      "볘": 1568,
      "볜": 1569,
      "볭": 1570,
      "보": 1571,
      "복": 1572,
      "볶": 1573,
      "본": 1574,
      "볻": 1575,
      "볼": 1576,
      "볾": 1577,
      "봄": 1578,
      "봅": 1579,
      "봇": 1580,
      "봉": 1581,
      "봊": 1582,
      "봌": 1583,
      "봍": 1584,
      "봏": 1585,
      "봐": 1586,
      "봑": 1587,
      "봔": 1588,
      "봗": 1589,
      "봘": 1590,
      "봟": 1591,
      "봡": 1592,
      "봣": 1593,
      "봤": 1594,
      "봥": 1595,
      "봨": 1596,
      "봫": 1597,
      "봬": 1598,
      "뵀": 1599,
      "뵁": 1600,
      "뵈": 1601,
      "뵌": 1602,
      "뵐": 1603,
      "뵙": 1604,
      "뵜": 1605,
      "뵤": 1606,
      "뵨": 1607,
      "뵵": 1608,
      "뵹": 1609,
      "부": 1610,
      "북": 1611,
      "붂": 1612,
      "붃": 1613,
      "분": 1614,
      "붇": 1615,
      "불": 1616,
      "붉": 1617,
      "붋": 1618,
      "붏": 1619,
      "붐": 1620,
      "붑": 1621,
      "붓": 1622,
      "붕": 1623,
      "붖": 1624,
      "붘": 1625,
      "붙": 1626,
      "붚": 1627,
      "붛": 1628,
      "붜": 1629,
      "붠": 1630,
      "붤": 1631,
      "붱": 1632,
      "붸": 1633,
      "붹": 1634,
      "뷀": 1635,
      "뷁": 1636,
      "뷍": 1637,
      "뷔": 1638,
      "뷘": 1639,
      "뷩": 1640,
      "뷰": 1641,
      "뷱": 1642,
      "뷴": 1643,
      "뷸": 1644,
      "븀": 1645,
      "븁": 1646,
      "븅": 1647,
      "븉": 1648,
      "브": 1649,
      "븍": 1650,
      "븐": 1651,
      "블": 1652,
      "븜": 1653,
      "븝": 1654,
      "븟": 1655,
      "븡": 1656,
      "븥": 1657,
      "븨": 1658,
      "븩": 1659,
      "븬": 1660,
      "븰": 1661,
      "븹": 1662,
      "븽": 1663,
      "비": 1664,
      "빅": 1665,
      "빆": 1666,
      "빈": 1667,
      "빋": 1668,
      "빌": 1669,
      "빍": 1670,
      "빔": 1671,
      "빕": 1672,
      "빗": 1673,
      "빙": 1674,
      "빚": 1675,
      "빛": 1676,
      "빝": 1677,
      "빟": 1678,
      "빠": 1679,
      "빡": 1680,
      "빢": 1681,
      "빤": 1682,
      "빧": 1683,
      "빨": 1684,
      "빩": 1685,
      "빬": 1686,
      "빯": 1687,
      "빰": 1688,
      "빱": 1689,
      "빳": 1690,
      "빴": 1691,
      "빵": 1692,
      "빸": 1693,
      "빻": 1694,
      "빼": 1695,
      "빽": 1696,
      "뺀": 1697,
      "뺃": 1698,
      "뺄": 1699,
      "뺌": 1700,
      "뺍": 1701,
      "뺏": 1702,
      "뺐": 1703,
      "뺑": 1704,
      "뺒": 1705,
      "뺕": 1706,
      "뺘": 1707,
      "뺙": 1708,
      "뺜": 1709,
      "뺠": 1710,
      "뺨": 1711,
      "뺭": 1712,
      "뺴": 1713,
      "뺵": 1714,
      "뺸": 1715,
      "뻇": 1716,
      "뻈": 1717,
      "뻉": 1718,
      "뻐": 1719,
      "뻑": 1720,
      "뻔": 1721,
      "뻗": 1722,
      "뻘": 1723,
      "뻠": 1724,
      "뻡": 1725,
      "뻣": 1726,
      "뻤": 1727,
      "뻥": 1728,
      "뻩": 1729,
      "뻬": 1730,
      "뻭": 1731,
      "뻰": 1732,
      "뻴": 1733,
      "뻿": 1734,
      "뼁": 1735,
      "뼈": 1736,
      "뼉": 1737,
      "뼌": 1738,
      "뼘": 1739,
      "뼛": 1740,
      "뼜": 1741,
      "뼝": 1742,
      "뼤": 1743,
      "뽀": 1744,
      "뽁": 1745,
      "뽂": 1746,
      "뽄": 1747,
      "뽈": 1748,
      "뽐": 1749,
      "뽑": 1750,
      "뽕": 1751,
      "뽚": 1752,
      "뽜": 1753,
      "뽝": 1754,
      "뽤": 1755,
      "뽱": 1756,
      "뾰": 1757,
      "뿅": 1758,
      "뿌": 1759,
      "뿍": 1760,
      "뿐": 1761,
      "뿔": 1762,
      "뿕": 1763,
      "뿜": 1764,
      "뿝": 1765,
      "뿟": 1766,
      "뿡": 1767,
      "쀄": 1768,
      "쀍": 1769,
      "쀼": 1770,
      "쁀": 1771,
      "쁑": 1772,
      "쁘": 1773,
      "쁜": 1774,
      "쁠": 1775,
      "쁨": 1776,
      "쁩": 1777,
      "삐": 1778,
      "삑": 1779,
      "삔": 1780,
      "삘": 1781,
      "삣": 1782,
      "삤": 1783,
      "삥": 1784,
      "사": 1785,
      "삭": 1786,
      "삮": 1787,
      "삯": 1788,
      "산": 1789,
      "삲": 1790,
      "삳": 1791,
      "살": 1792,
      "삵": 1793,
      "삶": 1794,
      "삷": 1795,
      "삻": 1796,
      "삼": 1797,
      "삽": 1798,
      "삿": 1799,
      "샀": 1800,
      "상": 1801,
      "샂": 1802,
      "샄": 1803,
      "샅": 1804,
      "샆": 1805,
      "샇": 1806,
      "새": 1807,
      "색": 1808,
      "샊": 1809,
      "샋": 1810,
      "샌": 1811,
      "샎": 1812,
      "샏": 1813,
      "샐": 1814,
      "샑": 1815,
      "샕": 1816,
      "샘": 1817,
      "샙": 1818,
      "샛": 1819,
      "샜": 1820,
      "생": 1821,
      "샞": 1822,
      "샠": 1823,
      "샡": 1824,
      "샣": 1825,
      "샤": 1826,
      "샥": 1827,
      "샨": 1828,
      "샬": 1829,
      "샴": 1830,
      "샵": 1831,
      "샷": 1832,
      "샸": 1833,
      "샹": 1834,
      "샼": 1835,
      "샾": 1836,
      "섀": 1837,
      "섁": 1838,
      "섂": 1839,
      "섄": 1840,
      "섕": 1841,
      "섘": 1842,
      "서": 1843,
      "석": 1844,
      "섞": 1845,
      "선": 1846,
      "섡": 1847,
      "섣": 1848,
      "설": 1849,
      "섥": 1850,
      "섬": 1851,
      "섭": 1852,
      "섮": 1853,
      "섯": 1854,
      "섰": 1855,
      "성": 1856,
      "섲": 1857,
      "섴": 1858,
      "섵": 1859,
      "섶": 1860,
      "섷": 1861,
      "세": 1862,
      "섹": 1863,
      "섺": 1864,
      "섻": 1865,
      "센": 1866,
      "섿": 1867,
      "셀": 1868,
      "셈": 1869,
      "셉": 1870,
      "셋": 1871,
      "셌": 1872,
      "셍": 1873,
      "셐": 1874,
      "셑": 1875,
      "셓": 1876,
      "셔": 1877,
      "셕": 1878,
      "션": 1879,
      "셜": 1880,
      "셤": 1881,
      "셥": 1882,
      "셧": 1883,
      "셨": 1884,
      "셩": 1885,
      "셯": 1886,
      "셰": 1887,
      "셱": 1888,
      "셲": 1889,
      "셴": 1890,
      "셸": 1891,
      "솄": 1892,
      "솅": 1893,
      "솈": 1894,
      "소": 1895,
      "속": 1896,
      "솎": 1897,
      "손": 1898,
      "솓": 1899,
      "솔": 1900,
      "솜": 1901,
      "솝": 1902,
      "솟": 1903,
      "송": 1904,
      "솤": 1905,
      "솥": 1906,
      "솨": 1907,
      "솩": 1908,
      "솬": 1909,
      "솰": 1910,
      "솼": 1911,
      "솽": 1912,
      "쇄": 1913,
      "쇅": 1914,
      "쇆": 1915,
      "쇗": 1916,
      "쇙": 1917,
      "쇜": 1918,
      "쇠": 1919,
      "쇡": 1920,
      "쇤": 1921,
      "쇳": 1922,
      "쇼": 1923,
      "쇽": 1924,
      "숀": 1925,
      "숄": 1926,
      "숍": 1927,
      "숏": 1928,
      "숑": 1929,
      "숖": 1930,
      "수": 1931,
      "숙": 1932,
      "순": 1933,
      "숟": 1934,
      "술": 1935,
      "숨": 1936,
      "숩": 1937,
      "숫": 1938,
      "숭": 1939,
      "숮": 1940,
      "숯": 1941,
      "숰": 1942,
      "숱": 1943,
      "숲": 1944,
      "숳": 1945,
      "숴": 1946,
      "숵": 1947,
      "숸": 1948,
      "숼": 1949,
      "쉅": 1950,
      "쉈": 1951,
      "쉉": 1952,
      "쉌": 1953,
      "쉐": 1954,
      "쉑": 1955,
      "쉒": 1956,
      "쉓": 1957,
      "쉔": 1958,
      "쉘": 1959,
      "쉙": 1960,
      "쉡": 1961,
      "쉣": 1962,
      "쉥": 1963,
      "쉨": 1964,
      "쉬": 1965,
      "쉭": 1966,
      "쉰": 1967,
      "쉴": 1968,
      "쉼": 1969,
      "쉽": 1970,
      "쉿": 1971,
      "슁": 1972,
      "슄": 1973,
      "슆": 1974,
      "슈": 1975,
      "슉": 1976,
      "슌": 1977,
      "슐": 1978,
      "슘": 1979,
      "슙": 1980,
      "슛": 1981,
      "슝": 1982,
      "스": 1983,
      "슥": 1984,
      "슨": 1985,
      "슬": 1986,
      "슭": 1987,
      "슴": 1988,
      "습": 1989,
      "슷": 1990,
      "승": 1991,
      "슺": 1992,
      "슼": 1993,
      "슾": 1994,
      "슿": 1995,
      "싀": 1996,
      "싁": 1997,
      "싄": 1998,
      "싈": 1999,
      "싑": 2000,
      "싕": 2001,
      "시": 2002,
      "식": 2003,
      "싞": 2004,
      "신": 2005,
      "싡": 2006,
      "싢": 2007,
      "싣": 2008,
      "실": 2009,
      "싥": 2010,
      "싦": 2011,
      "싨": 2012,
      "싪": 2013,
      "싫": 2014,
      "심": 2015,
      "십": 2016,
      "싮": 2017,
      "싯": 2018,
      "싰": 2019,
      "싱": 2020,
      "싲": 2021,
      "싳": 2022,
      "싴": 2023,
      "싵": 2024,
      "싶": 2025,
      "싷": 2026,
      "싸": 2027,
      "싹": 2028,
      "싺": 2029,
      "싼": 2030,
      "쌀": 2031,
      "쌂": 2032,
      "쌈": 2033,
      "쌉": 2034,
      "쌋": 2035,
      "쌌": 2036,
      "쌍": 2037,
      "쌓": 2038,
      "쌔": 2039,
      "쌕": 2040,
      "쌖": 2041,
      "쌘": 2042,
      "쌜": 2043,
      "쌤": 2044,
      "쌥": 2045,
      "쌧": 2046,
      "쌨": 2047,
      "쌩": 2048,
      "쌬": 2049,
      "쌰": 2050,
      "쌱": 2051,
      "쌴": 2052,
      "썁": 2053,
      "썅": 2054,
      "썌": 2055,
      "썡": 2056,
      "써": 2057,
      "썩": 2058,
      "썪": 2059,
      "썬": 2060,
      "썰": 2061,
      "썸": 2062,
      "썹": 2063,
      "썻": 2064,
      "썼": 2065,
      "썽": 2066,
      "쎀": 2067,
      "쎃": 2068,
      "쎄": 2069,
      "쎅": 2070,
      "쎆": 2071,
      "쎈": 2072,
      "쎌": 2073,
      "쎔": 2074,
      "쎕": 2075,
      "쎗": 2076,
      "쎘": 2077,
      "쎙": 2078,
      "쎜": 2079,
      "쎠": 2080,
      "쎡": 2081,
      "쎤": 2082,
      "쎴": 2083,
      "쎵": 2084,
      "쎼": 2085,
      "쎾": 2086,
      "쏀": 2087,
      "쏘": 2088,
      "쏙": 2089,
      "쏜": 2090,
      "쏟": 2091,
      "쏠": 2092,
      "쏨": 2093,
      "쏩": 2094,
      "쏫": 2095,
      "쏭": 2096,
      "쏱": 2097,
      "쏳": 2098,
      "쏴": 2099,
      "쏵": 2100,
      "쏼": 2101,
      "쐇": 2102,
      "쐈": 2103,
      "쐉": 2104,
      "쐐": 2105,
      "쐑": 2106,
      "쐨": 2107,
      "쐬": 2108,
      "쐭": 2109,
      "쐰": 2110,
      "쐴": 2111,
      "쐽": 2112,
      "쑈": 2113,
      "쑝": 2114,
      "쑤": 2115,
      "쑥": 2116,
      "쑨": 2117,
      "쑬": 2118,
      "쑴": 2119,
      "쑵": 2120,
      "쑹": 2121,
      "쒀": 2122,
      "쒔": 2123,
      "쒜": 2124,
      "쒝": 2125,
      "쒞": 2126,
      "쒯": 2127,
      "쒰": 2128,
      "쒴": 2129,
      "쒸": 2130,
      "쒹": 2131,
      "쒼": 2132,
      "쓉": 2133,
      "쓒": 2134,
      "쓔": 2135,
      "쓤": 2136,
      "쓥": 2137,
      "쓩": 2138,
      "쓰": 2139,
      "쓱": 2140,
      "쓴": 2141,
      "쓸": 2142,
      "씀": 2143,
      "씁": 2144,
      "씃": 2145,
      "씅": 2146,
      "씉": 2147,
      "씌": 2148,
      "씐": 2149,
      "씝": 2150,
      "씞": 2151,
      "씦": 2152,
      "씨": 2153,
      "씩": 2154,
      "씪": 2155,
      "씬": 2156,
      "씯": 2157,
      "씰": 2158,
      "씳": 2159,
      "씸": 2160,
      "씹": 2161,
      "씺": 2162,
      "씻": 2163,
      "씼": 2164,
      "씽": 2165,
      "씾": 2166,
      "앀": 2167,
      "앂": 2168,
      "앃": 2169,
      "아": 2170,
      "악": 2171,
      "앆": 2172,
      "안": 2173,
      "앉": 2174,
      "않": 2175,
      "앋": 2176,
      "알": 2177,
      "앍": 2178,
      "앎": 2179,
      "앏": 2180,
      "앐": 2181,
      "앓": 2182,
      "암": 2183,
      "압": 2184,
      "앖": 2185,
      "앗": 2186,
      "았": 2187,
      "앙": 2188,
      "앚": 2189,
      "앛": 2190,
      "앜": 2191,
      "앝": 2192,
      "앞": 2193,
      "앟": 2194,
      "애": 2195,
      "액": 2196,
      "앢": 2197,
      "앤": 2198,
      "앨": 2199,
      "앰": 2200,
      "앱": 2201,
      "앲": 2202,
      "앳": 2203,
      "앴": 2204,
      "앵": 2205,
      "앸": 2206,
      "야": 2207,
      "약": 2208,
      "얀": 2209,
      "얂": 2210,
      "얃": 2211,
      "얄": 2212,
      "얇": 2213,
      "얊": 2214,
      "얌": 2215,
      "얍": 2216,
      "얏": 2217,
      "얐": 2218,
      "양": 2219,
      "얒": 2220,
      "얔": 2221,
      "얕": 2222,
      "얖": 2223,
      "얗": 2224,
      "얘": 2225,
      "얙": 2226,
      "얜": 2227,
      "얠": 2228,
      "얨": 2229,
      "얫": 2230,
      "얭": 2231,
      "어": 2232,
      "억": 2233,
      "얶": 2234,
      "얷": 2235,
      "언": 2236,
      "얹": 2237,
      "얺": 2238,
      "얻": 2239,
      "얼": 2240,
      "얽": 2241,
      "얾": 2242,
      "엃": 2243,
      "엄": 2244,
      "업": 2245,
      "없": 2246,
      "엇": 2247,
      "었": 2248,
      "엉": 2249,
      "엊": 2250,
      "엌": 2251,
      "엍": 2252,
      "엎": 2253,
      "엏": 2254,
      "에": 2255,
      "엑": 2256,
      "엔": 2257,
      "엗": 2258,
      "엘": 2259,
      "엠": 2260,
      "엡": 2261,
      "엢": 2262,
      "엣": 2263,
      "엤": 2264,
      "엥": 2265,
      "엦": 2266,
      "엨": 2267,
      "엪": 2268,
      "여": 2269,
      "역": 2270,
      "엮": 2271,
      "엯": 2272,
      "연": 2273,
      "엳": 2274,
      "열": 2275,
      "엷": 2276,
      "염": 2277,
      "엽": 2278,
      "엾": 2279,
      "엿": 2280,
      "였": 2281,
      "영": 2282,
      "옂": 2283,
      "옃": 2284,
      "옄": 2285,
      "옅": 2286,
      "옆": 2287,
      "옇": 2288,
      "예": 2289,
      "옉": 2290,
      "옌": 2291,
      "옐": 2292,
      "옘": 2293,
      "옙": 2294,
      "옛": 2295,
      "옜": 2296,
      "옝": 2297,
      "오": 2298,
      "옥": 2299,
      "온": 2300,
      "옪": 2301,
      "옫": 2302,
      "올": 2303,
      "옭": 2304,
      "옮": 2305,
      "옯": 2306,
      "옰": 2307,
      "옳": 2308,
      "옴": 2309,
      "옵": 2310,
      "옶": 2311,
      "옷": 2312,
      "옸": 2313,
      "옹": 2314,
      "옺": 2315,
      "옻": 2316,
      "옼": 2317,
      "옽": 2318,
      "옿": 2319,
      "와": 2320,
      "왁": 2321,
      "완": 2322,
      "왈": 2323,
      "왐": 2324,
      "왑": 2325,
      "왓": 2326,
      "왔": 2327,
      "왕": 2328,
      "왘": 2329,
      "왚": 2330,
      "왛": 2331,
      "왜": 2332,
      "왝": 2333,
      "왠": 2334,
      "왤": 2335,
      "왰": 2336,
      "왱": 2337,
      "왴": 2338,
      "외": 2339,
      "왹": 2340,
      "왼": 2341,
      "욀": 2342,
      "욋": 2343,
      "욌": 2344,
      "욍": 2345,
      "요": 2346,
      "욕": 2347,
      "욘": 2348,
      "욛": 2349,
      "욜": 2350,
      "욤": 2351,
      "욥": 2352,
      "욧": 2353,
      "욨": 2354,
      "용": 2355,
      "욪": 2356,
      "욬": 2357,
      "욮": 2358,
      "욯": 2359,
      "우": 2360,
      "욱": 2361,
      "운": 2362,
      "욷": 2363,
      "울": 2364,
      "욹": 2365,
      "욺": 2366,
      "욿": 2367,
      "움": 2368,
      "웁": 2369,
      "웂": 2370,
      "웃": 2371,
      "웄": 2372,
      "웅": 2373,
      "웆": 2374,
      "웈": 2375,
      "워": 2376,
      "웍": 2377,
      "원": 2378,
      "웑": 2379,
      "웓": 2380,
      "월": 2381,
      "웛": 2382,
      "웜": 2383,
      "웝": 2384,
      "웟": 2385,
      "웠": 2386,
      "웡": 2387,
      "웤": 2388,
      "웧": 2389,
      "웨": 2390,
      "웩": 2391,
      "웬": 2392,
      "웰": 2393,
      "웸": 2394,
      "웹": 2395,
      "웽": 2396,
      "윀": 2397,
      "위": 2398,
      "윅": 2399,
      "윈": 2400,
      "윌": 2401,
      "윔": 2402,
      "윕": 2403,
      "윗": 2404,
      "윘": 2405,
      "윙": 2406,
      "유": 2407,
      "육": 2408,
      "윤": 2409,
      "율": 2410,
      "윰": 2411,
      "윱": 2412,
      "윳": 2413,
      "융": 2414,
      "윷": 2415,
      "윸": 2416,
      "으": 2417,
      "윽": 2418,
      "윾": 2419,
      "은": 2420,
      "읁": 2421,
      "읂": 2422,
      "읃": 2423,
      "을": 2424,
      "읅": 2425,
      "읆": 2426,
      "읇": 2427,
      "읉": 2428,
      "읊": 2429,
      "읋": 2430,
      "음": 2431,
      "읍": 2432,
      "읎": 2433,
      "읏": 2434,
      "읐": 2435,
      "응": 2436,
      "읒": 2437,
      "읔": 2438,
      "읕": 2439,
      "읖": 2440,
      "읗": 2441,
      "의": 2442,
      "읙": 2443,
      "읜": 2444,
      "읠": 2445,
      "읨": 2446,
      "읫": 2447,
      "읭": 2448,
      "읮": 2449,
      "읰": 2450,
      "이": 2451,
      "익": 2452,
      "읶": 2453,
      "인": 2454,
      "읹": 2455,
      "읺": 2456,
      "읻": 2457,
      "일": 2458,
      "읽": 2459,
      "읾": 2460,
      "읿": 2461,
      "잀": 2462,
      "잂": 2463,
      "잃": 2464,
      "임": 2465,
      "입": 2466,
      "잆": 2467,
      "잇": 2468,
      "있": 2469,
      "잉": 2470,
      "잊": 2471,
      "잋": 2472,
      "잌": 2473,
      "잍": 2474,
      "잎": 2475,
      "잏": 2476,
      "자": 2477,
      "작": 2478,
      "잔": 2479,
      "잕": 2480,
      "잖": 2481,
      "잗": 2482,
      "잘": 2483,
      "잚": 2484,
      "잛": 2485,
      "잟": 2486,
      "잠": 2487,
      "잡": 2488,
      "잢": 2489,
      "잣": 2490,
      "잤": 2491,
      "장": 2492,
      "잦": 2493,
      "잧": 2494,
      "잨": 2495,
      "잩": 2496,
      "잪": 2497,
      "잫": 2498,
      "재": 2499,
      "잭": 2500,
      "잰": 2501,
      "잴": 2502,
      "잼": 2503,
      "잽": 2504,
      "잿": 2505,
      "쟀": 2506,
      "쟁": 2507,
      "쟂": 2508,
      "쟈": 2509,
      "쟉": 2510,
      "쟌": 2511,
      "쟎": 2512,
      "쟐": 2513,
      "쟙": 2514,
      "쟛": 2515,
      "쟜": 2516,
      "쟝": 2517,
      "쟞": 2518,
      "쟤": 2519,
      "쟨": 2520,
      "쟬": 2521,
      "쟹": 2522,
      "저": 2523,
      "적": 2524,
      "전": 2525,
      "젅": 2526,
      "젆": 2527,
      "젇": 2528,
      "절": 2529,
      "젉": 2530,
      "젊": 2531,
      "젋": 2532,
      "젎": 2533,
      "젏": 2534,
      "점": 2535,
      "접": 2536,
      "젓": 2537,
      "젔": 2538,
      "정": 2539,
      "젖": 2540,
      "젗": 2541,
      "젘": 2542,
      "젙": 2543,
      "젛": 2544,
      "제": 2545,
      "젝": 2546,
      "젠": 2547,
      "젤": 2548,
      "젬": 2549,
      "젭": 2550,
      "젯": 2551,
      "젰": 2552,
      "젱": 2553,
      "젲": 2554,
      "젴": 2555,
      "져": 2556,
      "젹": 2557,
      "젼": 2558,
      "젿": 2559,
      "졀": 2560,
      "졈": 2561,
      "졉": 2562,
      "졋": 2563,
      "졌": 2564,
      "졍": 2565,
      "졎": 2566,
      "졐": 2567,
      "졑": 2568,
      "졓": 2569,
      "졔": 2570,
      "졘": 2571,
      "조": 2572,
      "족": 2573,
      "졲": 2574,
      "졳": 2575,
      "존": 2576,
      "졵": 2577,
      "졷": 2578,
      "졸": 2579,
      "졻": 2580,
      "좀": 2581,
      "좁": 2582,
      "좂": 2583,
      "좃": 2584,
      "좄": 2585,
      "종": 2586,
      "좆": 2587,
      "좇": 2588,
      "좈": 2589,
      "좉": 2590,
      "좊": 2591,
      "좋": 2592,
      "좌": 2593,
      "좍": 2594,
      "좐": 2595,
      "좔": 2596,
      "좝": 2597,
      "좟": 2598,
      "좠": 2599,
      "좡": 2600,
      "좢": 2601,
      "좦": 2602,
      "좨": 2603,
      "좸": 2604,
      "좽": 2605,
      "죄": 2606,
      "죅": 2607,
      "죈": 2608,
      "죌": 2609,
      "죕": 2610,
      "죗": 2611,
      "죙": 2612,
      "죠": 2613,
      "죡": 2614,
      "죤": 2615,
      "죧": 2616,
      "죨": 2617,
      "죰": 2618,
      "죱": 2619,
      "죳": 2620,
      "죴": 2621,
      "죵": 2622,
      "죷": 2623,
      "죸": 2624,
      "죹": 2625,
      "죻": 2626,
      "주": 2627,
      "죽": 2628,
      "준": 2629,
      "줃": 2630,
      "줄": 2631,
      "줌": 2632,
      "줍": 2633,
      "줏": 2634,
      "중": 2635,
      "줒": 2636,
      "줓": 2637,
      "줔": 2638,
      "줕": 2639,
      "줗": 2640,
      "줘": 2641,
      "줙": 2642,
      "줜": 2643,
      "줟": 2644,
      "줠": 2645,
      "줩": 2646,
      "줫": 2647,
      "줬": 2648,
      "줭": 2649,
      "줮": 2650,
      "줯": 2651,
      "줱": 2652,
      "줳": 2653,
      "줴": 2654,
      "줸": 2655,
      "쥐": 2656,
      "쥑": 2657,
      "쥔": 2658,
      "쥘": 2659,
      "쥡": 2660,
      "쥣": 2661,
      "쥤": 2662,
      "쥥": 2663,
      "쥬": 2664,
      "쥭": 2665,
      "쥰": 2666,
      "쥴": 2667,
      "쥼": 2668,
      "쥽": 2669,
      "쥿": 2670,
      "즁": 2671,
      "즂": 2672,
      "즈": 2673,
      "즉": 2674,
      "즌": 2675,
      "즐": 2676,
      "즘": 2677,
      "즙": 2678,
      "즛": 2679,
      "증": 2680,
      "즞": 2681,
      "즣": 2682,
      "즤": 2683,
      "즥": 2684,
      "즨": 2685,
      "즬": 2686,
      "즹": 2687,
      "지": 2688,
      "직": 2689,
      "진": 2690,
      "짅": 2691,
      "짆": 2692,
      "짇": 2693,
      "질": 2694,
      "짊": 2695,
      "짋": 2696,
      "짏": 2697,
      "짐": 2698,
      "집": 2699,
      "짒": 2700,
      "짓": 2701,
      "짔": 2702,
      "징": 2703,
      "짖": 2704,
      "짗": 2705,
      "짘": 2706,
      "짙": 2707,
      "짚": 2708,
      "짛": 2709,
      "짜": 2710,
      "짝": 2711,
      "짞": 2712,
      "짠": 2713,
      "짢": 2714,
      "짤": 2715,
      "짦": 2716,
      "짧": 2717,
      "짪": 2718,
      "짬": 2719,
      "짭": 2720,
      "짯": 2721,
      "짰": 2722,
      "짱": 2723,
      "짲": 2724,
      "짴": 2725,
      "째": 2726,
      "짹": 2727,
      "짼": 2728,
      "쨀": 2729,
      "쨈": 2730,
      "쨉": 2731,
      "쨋": 2732,
      "쨌": 2733,
      "쨍": 2734,
      "쨎": 2735,
      "쨓": 2736,
      "쨔": 2737,
      "쨕": 2738,
      "쨘": 2739,
      "쨜": 2740,
      "쨥": 2741,
      "쨩": 2742,
      "쨰": 2743,
      "쩄": 2744,
      "쩌": 2745,
      "쩍": 2746,
      "쩐": 2747,
      "쩔": 2748,
      "쩜": 2749,
      "쩝": 2750,
      "쩟": 2751,
      "쩠": 2752,
      "쩡": 2753,
      "쩢": 2754,
      "쩦": 2755,
      "쩧": 2756,
      "쩨": 2757,
      "쪄": 2758,
      "쪅": 2759,
      "쪈": 2760,
      "쪌": 2761,
      "쪔": 2762,
      "쪕": 2763,
      "쪗": 2764,
      "쪘": 2765,
      "쪙": 2766,
      "쪚": 2767,
      "쪼": 2768,
      "쪽": 2769,
      "쪾": 2770,
      "쫀": 2771,
      "쫃": 2772,
      "쫄": 2773,
      "쫌": 2774,
      "쫍": 2775,
      "쫏": 2776,
      "쫐": 2777,
      "쫑": 2778,
      "쫒": 2779,
      "쫓": 2780,
      "쫔": 2781,
      "쫗": 2782,
      "쫘": 2783,
      "쫙": 2784,
      "쫩": 2785,
      "쫭": 2786,
      "쫴": 2787,
      "쬐": 2788,
      "쬑": 2789,
      "쬠": 2790,
      "쬬": 2791,
      "쬭": 2792,
      "쬽": 2793,
      "쭀": 2794,
      "쭁": 2795,
      "쭈": 2796,
      "쭉": 2797,
      "쭌": 2798,
      "쭐": 2799,
      "쭘": 2800,
      "쭙": 2801,
      "쭛": 2802,
      "쭝": 2803,
      "쭤": 2804,
      "쭥": 2805,
      "쭵": 2806,
      "쮜": 2807,
      "쮝": 2808,
      "쮠": 2809,
      "쮸": 2810,
      "쮹": 2811,
      "쯉": 2812,
      "쯍": 2813,
      "쯔": 2814,
      "쯕": 2815,
      "쯘": 2816,
      "쯜": 2817,
      "쯤": 2818,
      "쯥": 2819,
      "쯧": 2820,
      "쯨": 2821,
      "쯩": 2822,
      "쯪": 2823,
      "쯫": 2824,
      "쯰": 2825,
      "찌": 2826,
      "찍": 2827,
      "찎": 2828,
      "찐": 2829,
      "찓": 2830,
      "찔": 2831,
      "찜": 2832,
      "찝": 2833,
      "찟": 2834,
      "찡": 2835,
      "찢": 2836,
      "찣": 2837,
      "찧": 2838,
      "차": 2839,
      "착": 2840,
      "찬": 2841,
      "찮": 2842,
      "찯": 2843,
      "찰": 2844,
      "찷": 2845,
      "참": 2846,
      "찹": 2847,
      "찻": 2848,
      "찼": 2849,
      "창": 2850,
      "찾": 2851,
      "찿": 2852,
      "챀": 2853,
      "챃": 2854,
      "채": 2855,
      "책": 2856,
      "챈": 2857,
      "챌": 2858,
      "챔": 2859,
      "챕": 2860,
      "챗": 2861,
      "챘": 2862,
      "챙": 2863,
      "챠": 2864,
      "챡": 2865,
      "챤": 2866,
      "챦": 2867,
      "챨": 2868,
      "챰": 2869,
      "챱": 2870,
      "챴": 2871,
      "챵": 2872,
      "챽": 2873,
      "처": 2874,
      "척": 2875,
      "천": 2876,
      "첝": 2877,
      "철": 2878,
      "첨": 2879,
      "첩": 2880,
      "첫": 2881,
      "첬": 2882,
      "청": 2883,
      "첮": 2884,
      "첯": 2885,
      "체": 2886,
      "첵": 2887,
      "첸": 2888,
      "첼": 2889,
      "쳇": 2890,
      "쳉": 2891,
      "쳌": 2892,
      "쳐": 2893,
      "쳑": 2894,
      "쳔": 2895,
      "쳘": 2896,
      "쳠": 2897,
      "쳡": 2898,
      "쳣": 2899,
      "쳤": 2900,
      "쳥": 2901,
      "쳦": 2902,
      "쳧": 2903,
      "쳫": 2904,
      "쳬": 2905,
      "초": 2906,
      "촉": 2907,
      "촌": 2908,
      "촐": 2909,
      "촘": 2910,
      "촙": 2911,
      "촛": 2912,
      "총": 2913,
      "촞": 2914,
      "촟": 2915,
      "촣": 2916,
      "촤": 2917,
      "촥": 2918,
      "촨": 2919,
      "촬": 2920,
      "촴": 2921,
      "촵": 2922,
      "촹": 2923,
      "쵀": 2924,
      "최": 2925,
      "쵝": 2926,
      "쵤": 2927,
      "쵸": 2928,
      "쵼": 2929,
      "춈": 2930,
      "춋": 2931,
      "춍": 2932,
      "추": 2933,
      "축": 2934,
      "춘": 2935,
      "출": 2936,
      "춣": 2937,
      "춤": 2938,
      "춥": 2939,
      "춧": 2940,
      "충": 2941,
      "춯": 2942,
      "춰": 2943,
      "춴": 2944,
      "췁": 2945,
      "췃": 2946,
      "췄": 2947,
      "췅": 2948,
      "췌": 2949,
      "췐": 2950,
      "췡": 2951,
      "취": 2952,
      "췬": 2953,
      "췼": 2954,
      "췽": 2955,
      "츄": 2956,
      "츅": 2957,
      "츈": 2958,
      "츌": 2959,
      "츙": 2960,
      "츠": 2961,
      "측": 2962,
      "츤": 2963,
      "츨": 2964,
      "츰": 2965,
      "츱": 2966,
      "츳": 2967,
      "층": 2968,
      "츼": 2969,
      "칀": 2970,
      "칑": 2971,
      "치": 2972,
      "칙": 2973,
      "친": 2974,
      "칞": 2975,
      "칠": 2976,
      "칡": 2977,
      "침": 2978,
      "칩": 2979,
      "칫": 2980,
      "칬": 2981,
      "칭": 2982,
      "칮": 2983,
      "칰": 2984,
      "카": 2985,
      "칵": 2986,
      "칸": 2987,
      "칼": 2988,
      "캄": 2989,
      "캅": 2990,
      "캇": 2991,
      "캈": 2992,
      "캉": 2993,
      "캌": 2994,
      "캍": 2995,
      "캐": 2996,
      "캑": 2997,
      "캔": 2998,
      "캘": 2999,
      "캠": 3000,
      "캡": 3001,
      "캣": 3002,
      "캤": 3003,
      "캥": 3004,
      "캪": 3005,
      "캬": 3006,
      "캭": 3007,
      "컄": 3008,
      "컈": 3009,
      "커": 3010,
      "컥": 3011,
      "컨": 3012,
      "컫": 3013,
      "컬": 3014,
      "컴": 3015,
      "컵": 3016,
      "컷": 3017,
      "컸": 3018,
      "컹": 3019,
      "컼": 3020,
      "컽": 3021,
      "케": 3022,
      "켁": 3023,
      "켄": 3024,
      "켈": 3025,
      "켐": 3026,
      "켑": 3027,
      "켓": 3028,
      "켔": 3029,
      "켕": 3030,
      "켘": 3031,
      "켙": 3032,
      "켜": 3033,
      "켝": 3034,
      "켠": 3035,
      "켤": 3036,
      "켬": 3037,
      "켭": 3038,
      "켯": 3039,
      "켰": 3040,
      "켱": 3041,
      "켷": 3042,
      "켸": 3043,
      "코": 3044,
      "콕": 3045,
      "콘": 3046,
      "콜": 3047,
      "콤": 3048,
      "콥": 3049,
      "콧": 3050,
      "콩": 3051,
      "콬": 3052,
      "콰": 3053,
      "콱": 3054,
      "콴": 3055,
      "콸": 3056,
      "쾅": 3057,
      "쾈": 3058,
      "쾌": 3059,
      "쾍": 3060,
      "쾐": 3061,
      "쾡": 3062,
      "쾨": 3063,
      "쿄": 3064,
      "쿠": 3065,
      "쿡": 3066,
      "쿤": 3067,
      "쿨": 3068,
      "쿰": 3069,
      "쿱": 3070,
      "쿵": 3071,
      "쿸": 3072,
      "쿼": 3073,
      "퀀": 3074,
      "퀄": 3075,
      "퀘": 3076,
      "퀙": 3077,
      "퀭": 3078,
      "퀴": 3079,
      "퀵": 3080,
      "퀸": 3081,
      "퀼": 3082,
      "큉": 3083,
      "큐": 3084,
      "큘": 3085,
      "큨": 3086,
      "크": 3087,
      "큭": 3088,
      "큰": 3089,
      "클": 3090,
      "큼": 3091,
      "큽": 3092,
      "큿": 3093,
      "킁": 3094,
      "킄": 3095,
      "킅": 3096,
      "킈": 3097,
      "킝": 3098,
      "키": 3099,
      "킥": 3100,
      "킨": 3101,
      "킬": 3102,
      "킴": 3103,
      "킵": 3104,
      "킷": 3105,
      "킹": 3106,
      "킼": 3107,
      "타": 3108,
      "탁": 3109,
      "탄": 3110,
      "탈": 3111,
      "탉": 3112,
      "탐": 3113,
      "탑": 3114,
      "탓": 3115,
      "탔": 3116,
      "탕": 3117,
      "탙": 3118,
      "태": 3119,
      "택": 3120,
      "탠": 3121,
      "탤": 3122,
      "탬": 3123,
      "탭": 3124,
      "탯": 3125,
      "탰": 3126,
      "탱": 3127,
      "탸": 3128,
      "탹": 3129,
      "탼": 3130,
      "턀": 3131,
      "턍": 3132,
      "턔": 3133,
      "터": 3134,
      "턱": 3135,
      "턴": 3136,
      "털": 3137,
      "텀": 3138,
      "텁": 3139,
      "텃": 3140,
      "텄": 3141,
      "텅": 3142,
      "텋": 3143,
      "테": 3144,
      "텍": 3145,
      "텐": 3146,
      "텔": 3147,
      "템": 3148,
      "텝": 3149,
      "텟": 3150,
      "텡": 3151,
      "텨": 3152,
      "텬": 3153,
      "텰": 3154,
      "텻": 3155,
      "텼": 3156,
      "텽": 3157,
      "톄": 3158,
      "톈": 3159,
      "토": 3160,
      "톡": 3161,
      "톤": 3162,
      "톨": 3163,
      "톰": 3164,
      "톱": 3165,
      "톳": 3166,
      "통": 3167,
      "톻": 3168,
      "톼": 3169,
      "퇀": 3170,
      "퇄": 3171,
      "퇘": 3172,
      "퇫": 3173,
      "퇬": 3174,
      "퇴": 3175,
      "퇸": 3176,
      "퇼": 3177,
      "툇": 3178,
      "툐": 3179,
      "툥": 3180,
      "투": 3181,
      "툭": 3182,
      "툰": 3183,
      "툴": 3184,
      "툼": 3185,
      "툽": 3186,
      "퉁": 3187,
      "퉈": 3188,
      "퉛": 3189,
      "퉜": 3190,
      "퉤": 3191,
      "퉥": 3192,
      "퉵": 3193,
      "퉷": 3194,
      "퉸": 3195,
      "튀": 3196,
      "튄": 3197,
      "튈": 3198,
      "튐": 3199,
      "튑": 3200,
      "튓": 3201,
      "튕": 3202,
      "튜": 3203,
      "튠": 3204,
      "튤": 3205,
      "튬": 3206,
      "튭": 3207,
      "튱": 3208,
      "트": 3209,
      "특": 3210,
      "튼": 3211,
      "튿": 3212,
      "틀": 3213,
      "틁": 3214,
      "틅": 3215,
      "틈": 3216,
      "틉": 3217,
      "틋": 3218,
      "틍": 3219,
      "틐": 3220,
      "틑": 3221,
      "틔": 3222,
      "티": 3223,
      "틱": 3224,
      "틴": 3225,
      "틸": 3226,
      "팀": 3227,
      "팁": 3228,
      "팃": 3229,
      "팅": 3230,
      "파": 3231,
      "팍": 3232,
      "팎": 3233,
      "판": 3234,
      "팓": 3235,
      "팔": 3236,
      "팛": 3237,
      "팜": 3238,
      "팝": 3239,
      "팟": 3240,
      "팠": 3241,
      "팡": 3242,
      "팢": 3243,
      "팤": 3244,
      "팥": 3245,
      "팦": 3246,
      "패": 3247,
      "팩": 3248,
      "팬": 3249,
      "팰": 3250,
      "팸": 3251,
      "팹": 3252,
      "팻": 3253,
      "팼": 3254,
      "팽": 3255,
      "퍀": 3256,
      "퍄": 3257,
      "퍅": 3258,
      "퍈": 3259,
      "퍌": 3260,
      "퍙": 3261,
      "퍠": 3262,
      "퍼": 3263,
      "퍽": 3264,
      "펀": 3265,
      "펄": 3266,
      "펌": 3267,
      "펍": 3268,
      "펏": 3269,
      "펐": 3270,
      "펑": 3271,
      "페": 3272,
      "펙": 3273,
      "펜": 3274,
      "펠": 3275,
      "펨": 3276,
      "펩": 3277,
      "펫": 3278,
      "펭": 3279,
      "펴": 3280,
      "펵": 3281,
      "편": 3282,
      "펼": 3283,
      "폄": 3284,
      "폅": 3285,
      "폇": 3286,
      "폈": 3287,
      "평": 3288,
      "폐": 3289,
      "폑": 3290,
      "폔": 3291,
      "폠": 3292,
      "폥": 3293,
      "포": 3294,
      "폭": 3295,
      "폰": 3296,
      "폴": 3297,
      "폼": 3298,
      "폽": 3299,
      "폿": 3300,
      "퐁": 3301,
      "퐈": 3302,
      "퐉": 3303,
      "퐌": 3304,
      "퐐": 3305,
      "퐝": 3306,
      "푀": 3307,
      "표": 3308,
      "푝": 3309,
      "푠": 3310,
      "푤": 3311,
      "푯": 3312,
      "푱": 3313,
      "푸": 3314,
      "푹": 3315,
      "푼": 3316,
      "풀": 3317,
      "품": 3318,
      "풉": 3319,
      "풋": 3320,
      "풍": 3321,
      "풒": 3322,
      "풓": 3323,
      "풔": 3324,
      "풜": 3325,
      "풰": 3326,
      "퓌": 3327,
      "퓡": 3328,
      "퓨": 3329,
      "퓰": 3330,
      "퓸": 3331,
      "퓹": 3332,
      "퓽": 3333,
      "프": 3334,
      "픈": 3335,
      "플": 3336,
      "픔": 3337,
      "픕": 3338,
      "픗": 3339,
      "픙": 3340,
      "픠": 3341,
      "픵": 3342,
      "피": 3343,
      "픽": 3344,
      "핀": 3345,
      "필": 3346,
      "핌": 3347,
      "핍": 3348,
      "핏": 3349,
      "핑": 3350,
      "핓": 3351,
      "하": 3352,
      "학": 3353,
      "한": 3354,
      "핝": 3355,
      "핞": 3356,
      "핟": 3357,
      "할": 3358,
      "핡": 3359,
      "핢": 3360,
      "핣": 3361,
      "핤": 3362,
      "핥": 3363,
      "핦": 3364,
      "핧": 3365,
      "함": 3366,
      "합": 3367,
      "핫": 3368,
      "핬": 3369,
      "항": 3370,
      "핮": 3371,
      "핰": 3372,
      "핱": 3373,
      "핲": 3374,
      "핳": 3375,
      "해": 3376,
      "핵": 3377,
      "핶": 3378,
      "핸": 3379,
      "핻": 3380,
      "핼": 3381,
      "햄": 3382,
      "햅": 3383,
      "햇": 3384,
      "했": 3385,
      "행": 3386,
      "햊": 3387,
      "햋": 3388,
      "햌": 3389,
      "햏": 3390,
      "햐": 3391,
      "햑": 3392,
      "햔": 3393,
      "햘": 3394,
      "햛": 3395,
      "햝": 3396,
      "햟": 3397,
      "햠": 3398,
      "햡": 3399,
      "햣": 3400,
      "햤": 3401,
      "향": 3402,
      "햩": 3403,
      "햬": 3404,
      "햭": 3405,
      "햰": 3406,
      "햿": 3407,
      "헀": 3408,
      "헁": 3409,
      "허": 3410,
      "헉": 3411,
      "헌": 3412,
      "헐": 3413,
      "험": 3414,
      "헙": 3415,
      "헛": 3416,
      "헜": 3417,
      "헝": 3418,
      "헠": 3419,
      "헣": 3420,
      "헤": 3421,
      "헥": 3422,
      "헨": 3423,
      "헬": 3424,
      "헴": 3425,
      "헷": 3426,
      "헸": 3427,
      "헹": 3428,
      "헿": 3429,
      "혀": 3430,
      "혁": 3431,
      "현": 3432,
      "혈": 3433,
      "혐": 3434,
      "협": 3435,
      "혓": 3436,
      "혔": 3437,
      "형": 3438,
      "혜": 3439,
      "혝": 3440,
      "혠": 3441,
      "혤": 3442,
      "호": 3443,
      "혹": 3444,
      "혼": 3445,
      "홀": 3446,
      "홈": 3447,
      "홉": 3448,
      "홋": 3449,
      "홍": 3450,
      "홑": 3451,
      "홓": 3452,
      "화": 3453,
      "확": 3454,
      "환": 3455,
      "활": 3456,
      "홤": 3457,
      "홥": 3458,
      "홧": 3459,
      "홨": 3460,
      "황": 3461,
      "홬": 3462,
      "홯": 3463,
      "홰": 3464,
      "홱": 3465,
      "횃": 3466,
      "횄": 3467,
      "횅": 3468,
      "회": 3469,
      "획": 3470,
      "횐": 3471,
      "횔": 3472,
      "횝": 3473,
      "횟": 3474,
      "횡": 3475,
      "효": 3476,
      "횬": 3477,
      "횽": 3478,
      "후": 3479,
      "훅": 3480,
      "훈": 3481,
      "훌": 3482,
      "훍": 3483,
      "훑": 3484,
      "훓": 3485,
      "훔": 3486,
      "훕": 3487,
      "훗": 3488,
      "훙": 3489,
      "훝": 3490,
      "훠": 3491,
      "훤": 3492,
      "훨": 3493,
      "훳": 3494,
      "훵": 3495,
      "훻": 3496,
      "훼": 3497,
      "훽": 3498,
      "휀": 3499,
      "휄": 3500,
      "휏": 3501,
      "휑": 3502,
      "휘": 3503,
      "휙": 3504,
      "휜": 3505,
      "휠": 3506,
      "휨": 3507,
      "휩": 3508,
      "휭": 3509,
      "휴": 3510,
      "휸": 3511,
      "휼": 3512,
      "흄": 3513,
      "흉": 3514,
      "흌": 3515,
      "흐": 3516,
      "흑": 3517,
      "흔": 3518,
      "흘": 3519,
      "흙": 3520,
      "흠": 3521,
      "흡": 3522,
      "흣": 3523,
      "흥": 3524,
      "흨": 3525,
      "흩": 3526,
      "흫": 3527,
      "희": 3528,
      "흭": 3529,
      "흰": 3530,
      "흴": 3531,
      "흽": 3532,
      "힁": 3533,
      "히": 3534,
      "힉": 3535,
      "힌": 3536,
      "힐": 3537,
      "힘": 3538,
      "힙": 3539,
      "힛": 3540,
      "힜": 3541,
      "힝": 3542,
      "힣": 3543,
      "️": 3544,
      "％": 3545,
      "🆘": 3546,
      "🇦": 3547,
      "🇨": 3548,
      "🇪": 3549,
      "🇬": 3550,
      "🇭": 3551,
      "🇮": 3552,
      "🇯": 3553,
      "🇰": 3554,
      "🇱": 3555,
      "🇳": 3556,
      "🇵": 3557,
      "🇷": 3558,
      "🇸": 3559,
      "🇹": 3560,
      "🇺": 3561,
      "🇼": 3562,
      "🌀": 3563,
      "🌄": 3564,
      "🌈": 3565,
      "🌊": 3566,
      "🌋": 3567,
      "🌍": 3568,
      "🌎": 3569,
      "🌏": 3570,
      "🌑": 3571,
      "🌕": 3572,
      "🌙": 3573,
      "🌚": 3574,
      "🌛": 3575,
      "🌜": 3576,
      "🌝": 3577,
      "🌞": 3578,
      "🌟": 3579,
      "🌧": 3580,
      "🌩": 3581,
      "🌰": 3582,
      "🌱": 3583,
      "🌵": 3584,
      "🌶": 3585,
      "🌷": 3586,
      "🌸": 3587,
      "🌹": 3588,
      "🌺": 3589,
      "🌻": 3590,
      "🌼": 3591,
      "🌽": 3592,
      "🌾": 3593,
      "🌿": 3594,
      "🍀": 3595,
      "🍁": 3596,
      "🍂": 3597,
      "🍃": 3598,
      "🍄": 3599,
      "🍅": 3600,
      "🍆": 3601,
      "🍇": 3602,
      "🍈": 3603,
      "🍉": 3604,
      "🍊": 3605,
      "🍋": 3606,
      "🍌": 3607,
      "🍎": 3608,
      "🍏": 3609,
      "🍑": 3610,
      "🍒": 3611,
      "🍓": 3612,
      "🍔": 3613,
      "🍖": 3614,
      "🍚": 3615,
      "🍝": 3616,
      "🍞": 3617,
      "🍬": 3618,
      "🍭": 3619,
      "🍰": 3620,
      "🍳": 3621,
      "🍴": 3622,
      "🍺": 3623,
      "🍻": 3624,
      "🍼": 3625,
      "🍾": 3626,
      "🎀": 3627,
      "🎁": 3628,
      "🎂": 3629,
      "🎃": 3630,
      "🎄": 3631,
      "🎆": 3632,
      "🎇": 3633,
      "🎈": 3634,
      "🎉": 3635,
      "🎊": 3636,
      "🎋": 3637,
      "🎌": 3638,
      "🎗": 3639,
      "🎙": 3640,
      "🎤": 3641,
      "🎧": 3642,
      "🎬": 3643,
      "🎭": 3644,
      "🎯": 3645,
      "🎴": 3646,
      "🎵": 3647,
      "🎶": 3648,
      "🎷": 3649,
      "🎸": 3650,
      "🎹": 3651,
      "🎺": 3652,
      "🎼": 3653,
      "🏃": 3654,
      "🏅": 3655,
      "🏇": 3656,
      "🏈": 3657,
      "🏓": 3658,
      "🏮": 3659,
      "🏴": 3660,
      "🏻": 3661,
      "🏼": 3662,
      "🏽": 3663,
      "🏾": 3664,
      "🏿": 3665,
      "🐀": 3666,
      "🐁": 3667,
      "🐂": 3668,
      "🐃": 3669,
      "🐄": 3670,
      "🐅": 3671,
      "🐆": 3672,
      "🐇": 3673,
      "🐈": 3674,
      "🐉": 3675,
      "🐍": 3676,
      "🐎": 3677,
      "🐏": 3678,
      "🐑": 3679,
      "🐒": 3680,
      "🐓": 3681,
      "🐔": 3682,
      "🐕": 3683,
      "🐖": 3684,
      "🐗": 3685,
      "🐙": 3686,
      "🐛": 3687,
      "🐜": 3688,
      "🐝": 3689,
      "🐟": 3690,
      "🐣": 3691,
      "🐤": 3692,
      "🐥": 3693,
      "🐦": 3694,
      "🐧": 3695,
      "🐨": 3696,
      "🐩": 3697,
      "🐫": 3698,
      "🐭": 3699,
      "🐮": 3700,
      "🐯": 3701,
      "🐰": 3702,
      "🐱": 3703,
      "🐳": 3704,
      "🐴": 3705,
      "🐵": 3706,
      "🐶": 3707,
      "🐷": 3708,
      "🐸": 3709,
      "🐹": 3710,
      "🐺": 3711,
      "🐻": 3712,
      "🐼": 3713,
      "🐽": 3714,
      "🐾": 3715,
      "🐿": 3716,
      "👀": 3717,
      "👁": 3718,
      "👂": 3719,
      "👃": 3720,
      "👄": 3721,
      "👅": 3722,
      "👆": 3723,
      "👇": 3724,
      "👈": 3725,
      "👉": 3726,
      "👊": 3727,
      "👋": 3728,
      "👌": 3729,
      "👍": 3730,
      "👎": 3731,
      "👏": 3732,
      "👐": 3733,
      "👑": 3734,
      "👗": 3735,
      "👘": 3736,
      "👙": 3737,
      "👞": 3738,
      "👟": 3739,
      "👣": 3740,
      "👤": 3741,
      "👥": 3742,
      "👦": 3743,
      "👧": 3744,
      "👨": 3745,
      "👩": 3746,
      "👪": 3747,
      "👫": 3748,
      "👬": 3749,
      "👭": 3750,
      "👮": 3751,
      "👯": 3752,
      "👲": 3753,
      "👴": 3754,
      "👵": 3755,
      "👶": 3756,
      "👹": 3757,
      "👺": 3758,
      "👻": 3759,
      "👼": 3760,
      "👽": 3761,
      "👾": 3762,
      "👿": 3763,
      "💀": 3764,
      "💁": 3765,
      "💃": 3766,
      "💄": 3767,
      "💊": 3768,
      "💋": 3769,
      "💌": 3770,
      "💎": 3771,
      "💏": 3772,
      "💐": 3773,
      "💑": 3774,
      "💒": 3775,
      "💓": 3776,
      "💔": 3777,
      "💕": 3778,
      "💖": 3779,
      "💗": 3780,
      "💘": 3781,
      "💙": 3782,
      "💚": 3783,
      "💛": 3784,
      "💜": 3785,
      "💝": 3786,
      "💞": 3787,
      "💟": 3788,
      "💡": 3789,
      "💢": 3790,
      "💣": 3791,
      "💤": 3792,
      "💥": 3793,
      "💦": 3794,
      "💧": 3795,
      "💨": 3796,
      "💩": 3797,
      "💪": 3798,
      "💫": 3799,
      "💯": 3800,
      "💰": 3801,
      "💲": 3802,
      "💵": 3803,
      "💸": 3804,
      "📌": 3805,
      "📍": 3806,
      "📛": 3807,
      "📢": 3808,
      "📣": 3809,
      "📯": 3810,
      "📺": 3811,
      "🔅": 3812,
      "🔆": 3813,
      "🔇": 3814,
      "🔉": 3815,
      "🔊": 3816,
      "🔑": 3817,
      "🔔": 3818,
      "🔕": 3819,
      "🔖": 3820,
      "🔞": 3821,
      "🔥": 3822,
      "🔧": 3823,
      "🔨": 3824,
      "🔪": 3825,
      "🔫": 3826,
      "🔮": 3827,
      "🔲": 3828,
      "🔴": 3829,
      "🔵": 3830,
      "🔷": 3831,
      "🔸": 3832,
      "🔹": 3833,
      "🔺": 3834,
      "🔻": 3835,
      "🕊": 3836,
      "🕖": 3837,
      "🕯": 3838,
      "🕷": 3839,
      "🕺": 3840,
      "🖐": 3841,
      "🖕": 3842,
      "🖤": 3843,
      "🗝": 3844,
      "🗡": 3845,
      "🗣": 3846,
      "🗽": 3847,
      "🗿": 3848,
      "😀": 3849,
      "😁": 3850,
      "😂": 3851,
      "😃": 3852,
      "😄": 3853,
      "😅": 3854,
      "😆": 3855,
      "😇": 3856,
      "😈": 3857,
      "😉": 3858,
      "😊": 3859,
      "😋": 3860,
      "😌": 3861,
      "😍": 3862,
      "😎": 3863,
      "😏": 3864,
      "😐": 3865,
      "😑": 3866,
      "😒": 3867,
      "😓": 3868,
      "😔": 3869,
      "😕": 3870,
      "😖": 3871,
      "😗": 3872,
      "😘": 3873,
      "😙": 3874,
      "😚": 3875,
      "😛": 3876,
      "😜": 3877,
      "😝": 3878,
      "😞": 3879,
      "😟": 3880,
      "😠": 3881,
      "😡": 3882,
      "😢": 3883,
      "😣": 3884,
      "😤": 3885,
      "😥": 3886,
      "😧": 3887,
      "😨": 3888,
      "😩": 3889,
      "😪": 3890,
      "😫": 3891,
      "😬": 3892,
      "😭": 3893,
      "😮": 3894,
      "😯": 3895,
      "😰": 3896,
      "😱": 3897,
      "😲": 3898,
      "😳": 3899,
      "😴": 3900,
      "😵": 3901,
      "😶": 3902,
      "😷": 3903,
      "😻": 3904,
      "😽": 3905,
      "🙂": 3906,
      "🙃": 3907,
      "🙄": 3908,
      "🙅": 3909,
      "🙆": 3910,
      "🙇": 3911,
      "🙈": 3912,
      "🙉": 3913,
      "🙊": 3914,
      "🙋": 3915,
      "🙌": 3916,
      "🙏": 3917,
      "🚀": 3918,
      "🚁": 3919,
      "🚅": 3920,
      "🚑": 3921,
      "🚔": 3922,
      "🚗": 3923,
      "🚢": 3924,
      "🚨": 3925,
      "🚩": 3926,
      "🚫": 3927,
      "🚴": 3928,
      "🛎": 3929,
      "🛑": 3930,
      "🤐": 3931,
      "🤑": 3932,
      "🤒": 3933,
      "🤓": 3934,
      "🤔": 3935,
      "🤕": 3936,
      "🤗": 3937,
      "🤘": 3938,
      "🤚": 3939,
      "🤛": 3940,
      "🤜": 3941,
      "🤝": 3942,
      "🤞": 3943,
      "🤟": 3944,
      "🤠": 3945,
      "🤡": 3946,
      "🤢": 3947,
      "🤣": 3948,
      "🤤": 3949,
      "🤥": 3950,
      "🤦": 3951,
      "🤧": 3952,
      "🤨": 3953,
      "🤩": 3954,
      "🤪": 3955,
      "🤫": 3956,
      "🤬": 3957,
      "🤭": 3958,
      "🤮": 3959,
      "🤯": 3960,
      "🤰": 3961,
      "🤴": 3962,
      "🤷": 3963,
      "🤸": 3964,
      "🤺": 3965,
      "🥀": 3966,
      "🥁": 3967,
      "🥇": 3968,
      "🥊": 3969,
      "🥒": 3970,
      "🥕": 3971,
      "🥖": 3972,
      "🥚": 3973,
      "🥥": 3974,
      "🥰": 3975,
      "🥳": 3976,
      "🥴": 3977,
      "🥵": 3978,
      "🥶": 3979,
      "🥺": 3980,
      "🦀": 3981,
      "🦁": 3982,
      "🦅": 3983,
      "🦆": 3984,
      "🦇": 3985,
      "🦉": 3986,
      "🦊": 3987,
      "🦋": 3988,
      "🦍": 3989,
      "🦜": 3990,
      "🦝": 3991,
      "🦠": 3992,
      "🦮": 3993,
      "🦴": 3994,
      "🦶": 3995,
      "🦺": 3996,
      "🦼": 3997,
      "🧐": 3998,
      "🧟": 3999,
      "🧠": 4000,
      "🧡": 4001,
      "🧢": 4002,
      "🧨": 4003,
      "🩸": 4004,
      "##켜": 4005,
      "##줄": 4006,
      "##라": 4007,
      "##는": 4008,
      "##가": 4009,
      "##보": 4010,
      "##네": 4011,
      "##경": 4012,
      "##쪼": 4013,
      "##거": 4014,
      "##방": 4015,
      "##군": 4016,
      "##이": 4017,
      "##료": 4018,
      "##들": 4019,
      "##다": 4020,
      "##법": 4021,
      "##적": 4022,
      "##으": 4023,
      "##카": 4024,
      "##터": 4025,
      "##졌": 4026,
      "##을": 4027,
      "##때": 4028,
      "##도": 4029,
      "##난": 4030,
      "##짓": 4031,
      "##해": 4032,
      "##놓": 4033,
      "##고": 4034,
      "##느": 4035,
      "##정": 4036,
      "##돈": 4037,
      "##리": 4038,
      "##시": 4039,
      "##요": 4040,
      "##노": 4041,
      "##의": 4042,
      "##주": 4043,
      "##5": 4044,
      "##간": 4045,
      "##일": 4046,
      "##한": 4047,
      "##태": 4048,
      "##만": 4049,
      "##랑": 4050,
      "##께": 4051,
      "##슬": 4052,
      "##러": 4053,
      "##바": 4054,
      "##쒝": 4055,
      "##히": 4056,
      "##은": 4057,
      "##냥": 4058,
      "##탄": 4059,
      "##핵": 4060,
      "##안": 4061,
      "##했": 4062,
      "##면": 4063,
      "##개": 4064,
      "##테": 4065,
      "##세": 4066,
      "##계": 4067,
      "##1": 4068,
      "##위": 4069,
      "##꾸": 4070,
      "##어": 4071,
      "##서": 4072,
      "##맛": 4073,
      "##집": 4074,
      "##화": 4075,
      "##외": 4076,
      "##치": 4077,
      "##며": 4078,
      "##폭": 4079,
      "##행": 4080,
      "##당": 4081,
      "##할": 4082,
      "##꺼": 4083,
      "##같": 4084,
      "##아": 4085,
      "##등": 4086,
      "##학": 4087,
      "##생": 4088,
      "##재": 4089,
      "##미": 4090,
      "##로": 4091,
      "##데": 4092,
      "##성": 4093,
      "##절": 4094,
      "##규": 4095,
      "##죄": 4096,
      "##싱": 4097,
      "##질": 4098,
      "##장": 4099,
      "##충": 4100,
      "##겠": 4101,
      "##지": 4102,
      "##스": 4103,
      "##트": 4104,
      "##자": 4105,
      "##슥": 4106,
      "##사": 4107,
      "##격": 4108,
      "##까": 4109,
      "##수": 4110,
      "##쌍": 4111,
      "##삶": 4112,
      "##에": 4113,
      "##감": 4114,
      "##귀": 4115,
      "##막": 4116,
      "##식": 4117,
      "##인": 4118,
      "##역": 4119,
      "##두": 4120,
      "##렵": 4121,
      "##않": 4122,
      "##국": 4123,
      "##선": 4124,
      "##녔": 4125,
      "##음": 4126,
      "##쪽": 4127,
      "##과": 4128,
      "##파": 4129,
      "##된": 4130,
      "##부": 4131,
      "##연": 4132,
      "##쳐": 4133,
      "##먹": 4134,
      "##려": 4135,
      "##나": 4136,
      "##모": 4137,
      "##르": 4138,
      "##메": 4139,
      "##대": 4140,
      "##민": 4141,
      "##추": 4142,
      "##매": 4143,
      "##야": 4144,
      "##ㅉ": 4145,
      "##즈": 4146,
      "##크": 4147,
      "##꼴": 4148,
      "##통": 4149,
      "##냐": 4150,
      "##언": 4151,
      "##준": 4152,
      "##진": 4153,
      "##짱": 4154,
      "##베": 4155,
      "##럽": 4156,
      "##ㅋ": 4157,
      "##악": 4158,
      "##하": 4159,
      "##애": 4160,
      "##것": 4161,
      "##찌": 4162,
      "##동": 4163,
      "##건": 4164,
      "##원": 4165,
      "##죠": 4166,
      "##비": 4167,
      "##마": 4168,
      "##약": 4169,
      "##벤": 4170,
      "##티": 4171,
      "##오": 4172,
      "##되": 4173,
      "##든": 4174,
      "##현": 4175,
      "##골": 4176,
      "##프": 4177,
      "##i": 4178,
      "##친": 4179,
      "##를": 4180,
      "##덜": 4181,
      "##달": 4182,
      "##창": 4183,
      "##기": 4184,
      "##환": 4185,
      "##뽑": 4186,
      "##웃": 4187,
      "##있": 4188,
      "##신": 4189,
      "##청": 4190,
      "##론": 4191,
      "##분": 4192,
      "##열": 4193,
      "##조": 4194,
      "##북": 4195,
      "##와": 4196,
      "##종": 4197,
      "##니": 4198,
      "##게": 4199,
      "##배": 4200,
      "##삐": 4201,
      "##운": 4202,
      "##전": 4203,
      "##났": 4204,
      "##었": 4205,
      "##술": 4206,
      "##유": 4207,
      "##출": 4208,
      "##없": 4209,
      "##업": 4210,
      "##무": 4211,
      "##못": 4212,
      "##점": 4213,
      "##넘": 4214,
      "##올": 4215,
      "##우": 4216,
      "##던": 4217,
      "##승": 4218,
      "##례": 4219,
      "##좃": 4220,
      "##m": 4221,
      "##p": 4222,
      "##u": 4223,
      "##l": 4224,
      "##s": 4225,
      "##e": 4226,
      "##망": 4227,
      "##구": 4228,
      "##품": 4229,
      "##체": 4230,
      "##제": 4231,
      "##복": 4232,
      "##갱": 4233,
      "##땅": 4234,
      "##발": 4235,
      "##슴": 4236,
      "##양": 4237,
      "##알": 4238,
      "##공": 4239,
      "##작": 4240,
      "##d": 4241,
      "##r": 4242,
      "##a": 4243,
      "##천": 4244,
      "##별": 4245,
      "##굴": 4246,
      "##몸": 4247,
      "##름": 4248,
      "##끄": 4249,
      "##움": 4250,
      "##택": 4251,
      "##임": 4252,
      "##말": 4253,
      "##몀": 4254,
      "##새": 4255,
      "##퀴": 4256,
      "##뢰": 4257,
      "##착": 4258,
      "##왜": 4259,
      "##껄": 4260,
      "##쳤": 4261,
      "##7": 4262,
      "##0": 4263,
      "##누": 4264,
      "##넹": 4265,
      "##소": 4266,
      "##교": 4267,
      "##명": 4268,
      "##였": 4269,
      "##결": 4270,
      "##문": 4271,
      "##날": 4272,
      "##드": 4273,
      "##런": 4274,
      "##님": 4275,
      "##중": 4276,
      "##확": 4277,
      "##늘": 4278,
      "##햇": 4279,
      "##농": 4280,
      "##단": 4281,
      "##받": 4282,
      "##낼": 4283,
      "##텐": 4284,
      "##권": 4285,
      "##력": 4286,
      "##팔": 4287,
      "##뿐": 4288,
      "##앙": 4289,
      "##딱": 4290,
      "##곳": 4291,
      "##내": 4292,
      "##뚜": 4293,
      "##맞": 4294,
      "##싶": 4295,
      "##박": 4296,
      "##엿": 4297,
      "##짖": 4298,
      "##댈": 4299,
      "##깐": 4300,
      "##금": 4301,
      "##표": 4302,
      "##몹": 4303,
      "##쓸": 4304,
      "##압": 4305,
      "##레": 4306,
      "##입": 4307,
      "##셨": 4308,
      "##령": 4309,
      "##떨": 4310,
      "##혈": 4311,
      "##ㅎ": 4312,
      "##그": 4313,
      "##참": 4314,
      "##웠": 4315,
      "##류": 4316,
      "##돼": 4317,
      "##변": 4318,
      "##호": 4319,
      "##갈": 4320,
      "##순": 4321,
      "##릇": 4322,
      "##버": 4323,
      "##람": 4324,
      "##놈": 4325,
      "##힐": 4326,
      "##여": 4327,
      "##젠": 4328,
      "##잘": 4329,
      "##울": 4330,
      "##린": 4331,
      "##옥": 4332,
      "##월": 4333,
      "##급": 4334,
      "##페": 4335,
      "##물": 4336,
      "##관": 4337,
      "##홀": 4338,
      "##될": 4339,
      "##떻": 4340,
      "##불": 4341,
      "##뭐": 4342,
      "##꺵": 4343,
      "##믿": 4344,
      "##덥": 4345,
      "##희": 4346,
      "##낙": 4347,
      "##락": 4348,
      "##겨": 4349,
      "##본": 4350,
      "##뉴": 4351,
      "##얼": 4352,
      "##실": 4353,
      "##뽕": 4354,
      "##밀": 4355,
      "##더": 4356,
      "##욱": 4357,
      "##워": 4358,
      "##앤": 4359,
      "##봐": 4360,
      "##타": 4361,
      "##녀": 4362,
      "##긴": 4363,
      "##각": 4364,
      "##앉": 4365,
      "##2": 4366,
      "##G": 4367,
      "##볼": 4368,
      "##래": 4369,
      "##쩐": 4370,
      "##9": 4371,
      "##ㅅ": 4372,
      "##ㄲ": 4373,
      "##써": 4374,
      "##회": 4375,
      "##포": 4376,
      "##취": 4377,
      "##센": 4378,
      "##키": 4379,
      "##많": 4380,
      "##딸": 4381,
      "##럴": 4382,
      "##놨": 4383,
      "##른": 4384,
      "##최": 4385,
      "##췬": 4386,
      "##색": 4387,
      "##염": 4388,
      "##딩": 4389,
      "##엘": 4390,
      "##예": 4391,
      "##댄": 4392,
      "##편": 4393,
      "##림": 4394,
      "##좌": 4395,
      "##찍": 4396,
      "##합": 4397,
      "##묻": 4398,
      "##y": 4399,
      "##j": 4400,
      "##t": 4401,
      "##후": 4402,
      "##g": 4403,
      "##o": 4404,
      "##즌": 4405,
      "##란": 4406,
      "##독": 4407,
      "##브": 4408,
      "##상": 4409,
      "##됩": 4410,
      "##좀": 4411,
      "##털": 4412,
      "##져": 4413,
      "##렷": 4414,
      "##잇": 4415,
      "##둘": 4416,
      "##릴": 4417,
      "##필": 4418,
      "##줘": 4419,
      "##영": 4420,
      "##함": 4421,
      "##폐": 4422,
      "##4": 4423,
      "##남": 4424,
      "##힌": 4425,
      "##돌": 4426,
      "##존": 4427,
      "##듯": 4428,
      "##용": 4429,
      "##돋": 4430,
      "##뜻": 4431,
      "##황": 4432,
      "##읗": 4433,
      "##삽": 4434,
      "##억": 4435,
      "##떼": 4436,
      "##퍼": 4437,
      "##닌": 4438,
      "##쩌": 4439,
      "##왔": 4440,
      "##협": 4441,
      "##밝": 4442,
      "##혀": 4443,
      "##뒤": 4444,
      "##팡": 4445,
      "##끼": 4446,
      "##킹": 4447,
      "##판": 4448,
      "##탁": 4449,
      "##L": 4450,
      "##E": 4451,
      "##D": 4452,
      "##셔": 4453,
      "##립": 4454,
      "##견": 4455,
      "##멀": 4456,
      "##산": 4457,
      "##🐶": 4458,
      "##따": 4459,
      "##눈": 4460,
      "##설": 4461,
      "##녁": 4462,
      "##둬": 4463,
      "##케": 4464,
      "##팅": 4465,
      "##투": 4466,
      "##쟁": 4467,
      "##졸": 4468,
      "##싼": 4469,
      "##쓰": 4470,
      "##살": 4471,
      "##싫": 4472,
      "##밖": 4473,
      "##속": 4474,
      "##탓": 4475,
      "##겐": 4476,
      "##처": 4477,
      "##롭": 4478,
      "##강": 4479,
      "##됬": 4480,
      "##튼": 4481,
      "##년": 4482,
      "##잖": 4483,
      "##엔": 4484,
      "##얘": 4485,
      "##률": 4486,
      "##증": 4487,
      "##저": 4488,
      "##겼": 4489,
      "##촌": 4490,
      "##층": 4491,
      "##평": 4492,
      "##흙": 4493,
      "##득": 4494,
      "##차": 4495,
      "##극": 4496,
      "##낸": 4497,
      "##머": 4498,
      "##챙": 4499,
      "##육": 4500,
      "##쇼": 4501,
      "##핑": 4502,
      "##광": 4503,
      "##목": 4504,
      "##손": 4505,
      "##I": 4506,
      "##M": 4507,
      "##F": 4508,
      "##힘": 4509,
      "##좋": 4510,
      "##걸": 4511,
      "##몰": 4512,
      "##탱": 4513,
      "##ㅇ": 4514,
      "##밑": 4515,
      "##심": 4516,
      "##책": 4517,
      "##랬": 4518,
      "##벌": 4519,
      "##겟": 4520,
      "##8": 4521,
      "##슨": 4522,
      "##걱": 4523,
      "##ㄹ": 4524,
      "##x": 4525,
      "##랄": 4526,
      "##낭": 4527,
      "##습": 4528,
      "##찰": 4529,
      "##쯤": 4530,
      "##녓": 4531,
      "##루": 4532,
      "##션": 4533,
      "##럼": 4534,
      "##범": 4535,
      "##뎌": 4536,
      "##긋": 4537,
      "##너": 4538,
      "##6": 4539,
      "##템": 4540,
      "##혐": 4541,
      "##O": 4542,
      "##멸": 4543,
      "##접": 4544,
      "##b": 4545,
      "##숟": 4546,
      "##둥": 4547,
      "##똥": 4548,
      "##멍": 4549,
      "##짝": 4550,
      "##혜": 4551,
      "##왕": 4552,
      "##랍": 4553,
      "##찐": 4554,
      "##빵": 4555,
      "##렸": 4556,
      "##폰": 4557,
      "##념": 4558,
      "##뒀": 4559,
      "##넌": 4560,
      "##졋": 4561,
      "##침": 4562,
      "##묵": 4563,
      "##좨": 4564,
      "##련": 4565,
      "##번": 4566,
      "##클": 4567,
      "##쇄": 4568,
      "##즘": 4569,
      "##뉘": 4570,
      "##잔": 4571,
      "##형": 4572,
      "##향": 4573,
      "##항": 4574,
      "##킨": 4575,
      "##랙": 4576,
      "##험": 4577,
      "##밥": 4578,
      "##P": 4579,
      "##A": 4580,
      "##N": 4581,
      "##큼": 4582,
      "##길": 4583,
      "##뻘": 4584,
      "##블": 4585,
      "##짤": 4586,
      "##활": 4587,
      "##딴": 4588,
      "##글": 4589,
      "##틀": 4590,
      "##앞": 4591,
      "##쥐": 4592,
      "##반": 4593,
      "##댕": 4594,
      "##앳": 4595,
      "##괴": 4596,
      "##볕": 4597,
      "##커": 4598,
      "##코": 4599,
      "##피": 4600,
      "##봤": 4601,
      "##셈": 4602,
      "##뻔": 4603,
      "##V": 4604,
      "##송": 4605,
      "##튀": 4606,
      "##온": 4607,
      "##눠": 4608,
      "##징": 4609,
      "##겄": 4610,
      "##채": 4611,
      "##릿": 4612,
      "##족": 4613,
      "##뇨": 4614,
      "##릭": 4615,
      "##씨": 4616,
      "##맨": 4617,
      "##값": 4618,
      "##병": 4619,
      "##빼": 4620,
      "##획": 4621,
      "##덕": 4622,
      "##덩": 4623,
      "##꼐": 4624,
      "##뎃": 4625,
      "##휘": 4626,
      "##죽": 4627,
      "##눼": 4628,
      "##탈": 4629,
      "##첫": 4630,
      "##근": 4631,
      "##댓": 4632,
      "##3": 4633,
      "##훈": 4634,
      "##줬": 4635,
      "##횡": 4636,
      "##X": 4637,
      "##똑": 4638,
      "##쁜": 4639,
      "##빨": 4640,
      "##🔴": 4641,
      "##n": 4642,
      "##윗": 4643,
      "##디": 4644,
      "##검": 4645,
      "##백": 4646,
      "##빌": 4647,
      "##ㅂ": 4648,
      "##꽉": 4649,
      "##둠": 4650,
      "##숯": 4651,
      "##촛": 4652,
      "##갔": 4653,
      "##뭉": 4654,
      "##욕": 4655,
      "##김": 4656,
      "##싸": 4657,
      "##춘": 4658,
      "##밭": 4659,
      "##쇠": 4660,
      "##줍": 4661,
      "##냨": 4662,
      "##랔": 4663,
      "##ㄱ": 4664,
      "##쑈": 4665,
      "##빠": 4666,
      "##량": 4667,
      "##럿": 4668,
      "##혼": 4669,
      "##잡": 4670,
      "##닭": 4671,
      "##찬": 4672,
      "##꼬": 4673,
      "##짜": 4674,
      "##플": 4675,
      "##납": 4676,
      "##낫": 4677,
      "##엄": 4678,
      "##씩": 4679,
      "##뷰": 4680,
      "##탕": 4681,
      "##콩": 4682,
      "##익": 4683,
      "##쩔": 4684,
      "##몇": 4685,
      "##렇": 4686,
      "##척": 4687,
      "##놀": 4688,
      "##끌": 4689,
      "##랴": 4690,
      "##웅": 4691,
      "##았": 4692,
      "##녹": 4693,
      "##봉": 4694,
      "##엽": 4695,
      "##총": 4696,
      "##랏": 4697,
      "##쟎": 4698,
      "##팬": 4699,
      "##패": 4700,
      "##율": 4701,
      "##얌": 4702,
      "##뇌": 4703,
      "##왓": 4704,
      "##균": 4705,
      "##륙": 4706,
      "##쟈": 4707,
      "##먼": 4708,
      "##붕": 4709,
      "##떠": 4710,
      "##능": 4711,
      "##듣": 4712,
      "##틴": 4713,
      "##헤": 4714,
      "##직": 4715,
      "##붙": 4716,
      "##냔": 4717,
      "##섭": 4718,
      "##ㄷ": 4719,
      "##혹": 4720,
      "##객": 4721,
      "##깟": 4722,
      "##컬": 4723,
      "##뒈": 4724,
      "##텨": 4725,
      "##뭔": 4726,
      "##낌": 4727,
      "##축": 4728,
      "##믄": 4729,
      "##굽": 4730,
      "##석": 4731,
      "##렬": 4732,
      "##낳": 4733,
      "##낮": 4734,
      "##곤": 4735,
      "##톨": 4736,
      "##숨": 4737,
      "##꿀": 4738,
      "##엇": 4739,
      "##팽": 4740,
      "##읹": 4741,
      "##담": 4742,
      "##푸": 4743,
      "##폔": 4744,
      "##ㅈ": 4745,
      "##넷": 4746,
      "##겁": 4747,
      "##철": 4748,
      "##풀": 4749,
      "##십": 4750,
      "##퇘": 4751,
      "##특": 4752,
      "##찔": 4753,
      "##허": 4754,
      "##냈": 4755,
      "##B": 4756,
      "##낀": 4757,
      "##엎": 4758,
      "##콘": 4759,
      "##섹": 4760,
      "##멘": 4761,
      "##닐": 4762,
      "##맹": 4763,
      "##😠": 4764,
      "##맙": 4765,
      "##k": 4766,
      "##빈": 4767,
      "##픽": 4768,
      "##헌": 4769,
      "##맘": 4770,
      "##곡": 4771,
      "##첩": 4772,
      "##c": 4773,
      "##펑": 4774,
      "##토": 4775,
      "##잉": 4776,
      "##록": 4777,
      "##칭": 4778,
      "##❓": 4779,
      "##듬": 4780,
      "##읃": 4781,
      "##줌": 4782,
      "##즐": 4783,
      "##퇴": 4784,
      "##숙": 4785,
      "##겅": 4786,
      "##액": 4787,
      "##됨": 4788,
      "##잠": 4789,
      "##빤": 4790,
      "##봇": 4791,
      "##젤": 4792,
      "##초": 4793,
      "##널": 4794,
      "##쥬": 4795,
      "##쉐": 4796,
      "##턴": 4797,
      "##섬": 4798,
      "##땜": 4799,
      "##쉬": 4800,
      "##므": 4801,
      "##앗": 4802,
      "##늬": 4803,
      "##찾": 4804,
      "##퉁": 4805,
      "##탐": 4806,
      "##캬": 4807,
      "##흘": 4808,
      "##꾼": 4809,
      "##랭": 4810,
      "##냄": 4811,
      "##옳": 4812,
      "##씀": 4813,
      "##깡": 4814,
      "##숱": 4815,
      "##깝": 4816,
      "##롸": 4817,
      "##젝": 4818,
      "##닫": 4819,
      "##😎": 4820,
      "##랫": 4821,
      "##렀": 4822,
      "##뺏": 4823,
      "##됐": 4824,
      "##완": 4825,
      "##볍": 4826,
      "##샌": 4827,
      "##욬": 4828,
      "##떤": 4829,
      "##뿌": 4830,
      "##째": 4831,
      "##갚": 4832,
      "##꿔": 4833,
      "##뜯": 4834,
      "##뇬": 4835,
      "##훼": 4836,
      "##쌕": 4837,
      "##츠": 4838,
      "##닝": 4839,
      "##꾹": 4840,
      "##넣": 4841,
      "##퉈": 4842,
      "##꼭": 4843,
      "##켰": 4844,
      "##닮": 4845,
      "##뀌": 4846,
      "##꿰": 4847,
      "##뚫": 4848,
      "##좆": 4849,
      "##T": 4850,
      "##끝": 4851,
      "##또": 4852,
      "##럭": 4853,
      "##깨": 4854,
      "##횔": 4855,
      "##룹": 4856,
      "##꿈": 4857,
      "##섂": 4858,
      "##쑵": 4859,
      "##돠": 4860,
      "##깔": 4861,
      "##껏": 4862,
      "##멏": 4863,
      "##푼": 4864,
      "##랐": 4865,
      "##짐": 4866,
      "##🇷": 4867,
      "##갓": 4868,
      "##캐": 4869,
      "##칫": 4870,
      "##깎": 4871,
      "##쌀": 4872,
      "##략": 4873,
      "##줫": 4874,
      "##킬": 4875,
      "##쏴": 4876,
      "##홍": 4877,
      "##랸": 4878,
      "##흥": 4879,
      "##몬": 4880,
      "##C": 4881,
      "##큐": 4882,
      "##봄": 4883,
      "##옆": 4884,
      "##랜": 4885,
      "##논": 4886,
      "##녕": 4887,
      "##➕": 4888,
      "##❎": 4889,
      "##빢": 4890,
      "##몽": 4891,
      "##숭": 4892,
      "##뜨": 4893,
      "##효": 4894,
      "##놔": 4895,
      "##🐕": 4896,
      "##탔": 4897,
      "##렁": 4898,
      "##뱅": 4899,
      "##쾌": 4900,
      "##캉": 4901,
      "##즤": 4902,
      "##잃": 4903,
      "##쌔": 4904,
      "##렴": 4905,
      "##즬": 4906,
      "##흡": 4907,
      "##웟": 4908,
      "##첵": 4909,
      "##w": 4910,
      "##칙": 4911,
      "##썩": 4912,
      "##촉": 4913,
      "##삭": 4914,
      "##핏": 4915,
      "##껑": 4916,
      "##밎": 4917,
      "##겹": 4918,
      "##튜": 4919,
      "##캠": 4920,
      "##쓴": 4921,
      "##옵": 4922,
      "##봅": 4923,
      "##읜": 4924,
      "##ㅁ": 4925,
      "##첨": 4926,
      "##땡": 4927,
      "##팸": 4928,
      "##삼": 4929,
      "##땃": 4930,
      "##핫": 4931,
      "##흔": 4932,
      "##칠": 4933,
      "##둔": 4934,
      "##흠": 4935,
      "##뭘": 4936,
      "##숩": 4937,
      "##걷": 4938,
      "##쌈": 4939,
      "##밍": 4940,
      "##뛰": 4941,
      "##햌": 4942,
      "##둑": 4943,
      "##닢": 4944,
      "##뀔": 4945,
      "##벼": 4946,
      "##뎈": 4947,
      "##쉽": 4948,
      "##쾅": 4949,
      "##짆": 4950,
      "##😧": 4951,
      "##숫": 4952,
      "##빴": 4953,
      "##혁": 4954,
      "##쳣": 4955,
      "##욘": 4956,
      "##멋": 4957,
      "##끈": 4958,
      "##ㅌ": 4959,
      "##샠": 4960,
      "##K": 4961,
      "##밤": 4962,
      "##깽": 4963,
      "##떄": 4964,
      "##괸": 4965,
      "##넼": 4966,
      "##싹": 4967,
      "##높": 4968,
      "##벅": 4969,
      "##콜": 4970,
      "##빅": 4971,
      "##🕊": 4972,
      "##궈": 4973,
      "##룰": 4974,
      "##싯": 4975,
      "##쿡": 4976,
      "##궁": 4977,
      "##벗": 4978,
      "##냉": 4979,
      "##응": 4980,
      "##갑": 4981,
      "##맥": 4982,
      "##텽": 4983,
      "##휴": 4984,
      "##S": 4985,
      "##퀸": 4986,
      "##헝": 4987,
      "##걍": 4988,
      "##ㄴ": 4989,
      "##톡": 4990,
      "##곱": 4991,
      "##R": 4992,
      "##컵": 4993,
      "##팩": 4994,
      "##끊": 4995,
      "##넨": 4996,
      "##😂": 4997,
      "##칩": 4998,
      "##녆": 4999,
      "##뛸": 5000,
      "##램": 5001,
      "##슙": 5002,
      "##꽈": 5003,
      "##꺠": 5004,
      "##쎄": 5005,
      "##뜰": 5006,
      "##벨": 5007,
      "##럄": 5008,
      "##끗": 5009,
      "##옷": 5010,
      "##귝": 5011,
      "##v": 5012,
      "##흉": 5013,
      "##☝": 5014,
      "##뚱": 5015,
      "##🔥": 5016,
      "##풍": 5017,
      "##덤": 5018,
      "##샊": 5019,
      "##씻": 5020,
      "##딘": 5021,
      "##혔": 5022,
      "##텅": 5023,
      "##똘": 5024,
      "##찮": 5025,
      "##뤘": 5026,
      "##헬": 5027,
      "##ㅆ": 5028,
      "##답": 5029,
      "##숀": 5030,
      "##ㅍ": 5031,
      "##걀": 5032,
      "##웡": 5033,
      "##롱": 5034,
      "##듭": 5035,
      "##딨": 5036,
      "##벽": 5037,
      "##갘": 5038,
      "##쉑": 5039,
      "##톤": 5040,
      "##암": 5041,
      "##맡": 5042,
      "##솥": 5043,
      "##멈": 5044,
      "##빙": 5045,
      "##f": 5046,
      "##쿠": 5047,
      "##깜": 5048,
      "##콤": 5049,
      "##픔": 5050,
      "##갖": 5051,
      "##쏘": 5052,
      "##옹": 5053,
      "##닦": 5054,
      "##삘": 5055,
      "##뗏": 5056,
      "##밌": 5057,
      "##땐": 5058,
      "##됌": 5059,
      "##잼": 5060,
      "##셋": 5061,
      "##앨": 5062,
      "##💓": 5063,
      "##엣": 5064,
      "##️": 5065,
      "##🆘": 5066,
      "##괄": 5067,
      "##됭": 5068,
      "##측": 5069,
      "##볗": 5070,
      "##웤": 5071,
      "##괘": 5072,
      "##넺": 5073,
      "##및": 5074,
      "##😍": 5075,
      "##덴": 5076,
      "##뻐": 5077,
      "##갸": 5078,
      "##젓": 5079,
      "##쫌": 5080,
      "##귄": 5081,
      "##썅": 5082,
      "##떴": 5083,
      "##컷": 5084,
      "##껌": 5085,
      "##뻥": 5086,
      "##몌": 5087,
      "##솔": 5088,
      "##핳": 5089,
      "##욧": 5090,
      "##칸": 5091,
      "##롤": 5092,
      "##쏠": 5093,
      "##델": 5094,
      "##렉": 5095,
      "##뒷": 5096,
      "##쁨": 5097,
      "##뤄": 5098,
      "##킥": 5099,
      "##놜": 5100,
      "##셀": 5101,
      "##텝": 5102,
      "##겡": 5103,
      "##늠": 5104,
      "##♥": 5105,
      "##껍": 5106,
      "##윤": 5107,
      "##뱌": 5108,
      "##눔": 5109,
      "##밋": 5110,
      "##닙": 5111,
      "##촐": 5112,
      "##껴": 5113,
      "##👏": 5114,
      "##뱃": 5115,
      "##랩": 5116,
      "##늨": 5117,
      "##땟": 5118,
      "##녜": 5119,
      "##Q": 5120,
      "##H": 5121,
      "##퐁": 5122,
      "##릎": 5123,
      "##꿇": 5124,
      "##엥": 5125,
      "##깁": 5126,
      "##쩍": 5127,
      "##뻗": 5128,
      "##껀": 5129,
      "##챈": 5130,
      "##봣": 5131,
      "##얀": 5132,
      "##넬": 5133,
      "##얻": 5134,
      "##삿": 5135,
      "##J": 5136,
      "##떡": 5137,
      "##콧": 5138,
      "##깍": 5139,
      "##뎁": 5140,
      "##랖": 5141,
      "##폴": 5142,
      "##옴": 5143,
      "##🏻": 5144,
      "##h": 5145,
      "##👌": 5146,
      "##뛴": 5147,
      "##댔": 5148,
      "##홧": 5149,
      "##밦": 5150,
      "##쎈": 5151,
      "##썼": 5152,
      "##잎": 5153,
      "##닥": 5154,
      "##햐": 5155,
      "##욤": 5156,
      "##츄": 5157,
      "##맏": 5158,
      "##롬": 5159,
      "##핼": 5160,
      "##톰": 5161,
      "##쯧": 5162,
      "##늙": 5163,
      "##즉": 5164,
      "##눌": 5165,
      "##퐈": 5166,
      "##U": 5167,
      "##폼": 5168,
      "##댐": 5169,
      "##잦": 5170,
      "##슷": 5171,
      "##뿔": 5172,
      "##꼿": 5173,
      "##갰": 5174,
      "##륭": 5175,
      "##펜": 5176,
      "##벞": 5177,
      "##촟": 5178,
      "##짰": 5179,
      "##잌": 5180,
      "##딜": 5181,
      "##랗": 5182,
      "##쿱": 5183,
      "##썬": 5184,
      "##쎅": 5185,
      "##뇽": 5186,
      "##쩝": 5187,
      "##픈": 5188,
      "##꽂": 5189,
      "##링": 5190,
      "##꼼": 5191,
      "##꺄": 5192,
      "##섴": 5193,
      "##ㅃ": 5194,
      "##🖕": 5195,
      "##W": 5196,
      "##😡": 5197,
      "##됫": 5198,
      "##꼰": 5199,
      "##땍": 5200,
      "##쩡": 5201,
      "##샵": 5202,
      "##슈": 5203,
      "##킈": 5204,
      "##훤": 5205,
      "##젊": 5206,
      "##읽": 5207,
      "##빚": 5208,
      "##흑": 5209,
      "##탠": 5210,
      "##딧": 5211,
      "##낄": 5212,
      "##춰": 5213,
      "##곧": 5214,
      "##셸": 5215,
      "##돤": 5216,
      "##밷": 5217,
      "##찢": 5218,
      "##긍": 5219,
      "##댱": 5220,
      "##쫄": 5221,
      "##꺽": 5222,
      "##쌤": 5223,
      "##훠": 5224,
      "##셧": 5225,
      "##켓": 5226,
      "##켔": 5227,
      "##🎉": 5228,
      "##돕": 5229,
      "##닛": 5230,
      "##늉": 5231,
      "##흐": 5232,
      "##컨": 5233,
      "##씌": 5234,
      "##턱": 5235,
      "##융": 5236,
      "##빛": 5237,
      "##앵": 5238,
      "##샘": 5239,
      "##쁘": 5240,
      "##쐇": 5241,
      "##퓨": 5242,
      "##😫": 5243,
      "##캔": 5244,
      "##샏": 5245,
      "##겉": 5246,
      "##핡": 5247,
      "##뼈": 5248,
      "##셱": 5249,
      "##샤": 5250,
      "##틍": 5251,
      "##엉": 5252,
      "##촬": 5253,
      "##❌": 5254,
      "##👈": 5255,
      "##엊": 5256,
      "##앖": 5257,
      "##뽄": 5258,
      "##웁": 5259,
      "##곽": 5260,
      "##돗": 5261,
      "##윈": 5262,
      "##쉒": 5263,
      "##잣": 5264,
      "##딛": 5265,
      "##횽": 5266,
      "##씁": 5267,
      "##쿄": 5268,
      "##셉": 5269,
      "##덯": 5270,
      "##덮": 5271,
      "##팀": 5272,
      "##딲": 5273,
      "##핬": 5274,
      "##첬": 5275,
      "##😭": 5276,
      "##큰": 5277,
      "##댁": 5278,
      "##셐": 5279,
      "##꼽": 5280,
      "##갤": 5281,
      "##낯": 5282,
      "##끠": 5283,
      "##끔": 5284,
      "##🌟": 5285,
      "##💙": 5286,
      "##븐": 5287,
      "##끍": 5288,
      "##엤": 5289,
      "##뱉": 5290,
      "##ㄸ": 5291,
      "##쩨": 5292,
      "##띠": 5293,
      "##춥": 5294,
      "##닼": 5295,
      "##끓": 5296,
      "##핰": 5297,
      "##떳": 5298,
      "##뵈": 5299,
      "##듦": 5300,
      "##웨": 5301,
      "##촞": 5302,
      "##붤": 5303,
      "##룸": 5304,
      "##괭": 5305,
      "##껐": 5306,
      "##뗴": 5307,
      "##졎": 5308,
      "##셜": 5309,
      "##쓱": 5310,
      "##뎀": 5311,
      "##뜸": 5312,
      "##빽": 5313,
      "##왈": 5314,
      "##읍": 5315,
      "##썹": 5316,
      "##툼": 5317,
      "##쿵": 5318,
      "##듀": 5319,
      "##냬": 5320,
      "##륜": 5321,
      "##빡": 5322,
      "##됄": 5323,
      "##앱": 5324,
      "##깊": 5325,
      "##컴": 5326,
      "##즁": 5327,
      "##🇺": 5328,
      "##🇸": 5329,
      "##긔": 5330,
      "##뷔": 5331,
      "##핞": 5332,
      "##즹": 5333,
      "##팍": 5334,
      "##틈": 5335,
      "##텔": 5336,
      "##뺌": 5337,
      "##옛": 5338,
      "##쟌": 5339,
      "##곈": 5340,
      "##얄": 5341,
      "##🐆": 5342,
      "##뻑": 5343,
      "##탭": 5344,
      "##🐷": 5345,
      "##🐖": 5346,
      "##젱": 5347,
      "##섯": 5348,
      "##춤": 5349,
      "##👍": 5350,
      "##붓": 5351,
      "##쿨": 5352,
      "##댜": 5353,
      "##싄": 5354,
      "##ㅊ": 5355,
      "##꽥": 5356,
      "##멤": 5357,
      "##젖": 5358,
      "##펀": 5359,
      "##뚝": 5360,
      "##쑤": 5361,
      "##룩": 5362,
      "##텍": 5363,
      "##샀": 5364,
      "##틸": 5365,
      "##팠": 5366,
      "##펭": 5367,
      "##굶": 5368,
      "##뤈": 5369,
      "##젼": 5370,
      "##숴": 5371,
      "##샛": 5372,
      "##🚁": 5373,
      "##🚀": 5374,
      "##텡": 5375,
      "##귤": 5376,
      "##팝": 5377,
      "##힙": 5378,
      "##헉": 5379,
      "##헸": 5380,
      "##옌": 5381,
      "##렌": 5382,
      "##섰": 5383,
      "##룬": 5384,
      "##꼈": 5385,
      "##펫": 5386,
      "##맣": 5387,
      "##똴": 5388,
      "##촤": 5389,
      "##얹": 5390,
      "##뎨": 5391,
      "##겸": 5392,
      "##둡": 5393,
      "##옉": 5394,
      "##룡": 5395,
      "##뷸": 5396,
      "##갠": 5397,
      "##갼": 5398,
      "##뤠": 5399,
      "##짘": 5400,
      "##씬": 5401,
      "##핦": 5402,
      "##홈": 5403,
      "##핥": 5404,
      "##욌": 5405,
      "##틱": 5406,
      "##씸": 5407,
      "##읎": 5408,
      "##밟": 5409,
      "##켠": 5410,
      "##묘": 5411,
      "##겤": 5412,
      "##굳": 5413,
      "##곁": 5414,
      "##샨": 5415,
      "##죈": 5416,
      "##밴": 5417,
      "##삥": 5418,
      "##쉰": 5419,
      "##몿": 5420,
      "##♂": 5421,
      "##헐": 5422,
      "##벙": 5423,
      "##퍽": 5424,
      "##훔": 5425,
      "##렝": 5426,
      "##껒": 5427,
      "##꽌": 5428,
      "##뫼": 5429,
      "##꼳": 5430,
      "##잏": 5431,
      "##🤬": 5432,
      "##켈": 5433,
      "##💚": 5434,
      "##💟": 5435,
      "##💖": 5436,
      "##💞": 5437,
      "##💗": 5438,
      "##💕": 5439,
      "##💜": 5440,
      "##셍": 5441,
      "##몃": 5442,
      "##겪": 5443,
      "##뤼": 5444,
      "##핮": 5445,
      "##썽": 5446,
      "##쭉": 5447,
      "##쨰": 5448,
      "##퐐": 5449,
      "##뱀": 5450,
      "##쁠": 5451,
      "##쉴": 5452,
      "##꿍": 5453,
      "##💥": 5454,
      "##쪄": 5455,
      "##붉": 5456,
      "##냅": 5457,
      "##졷": 5458,
      "##갯": 5459,
      "##츰": 5460,
      "##뵤": 5461,
      "##꽃": 5462,
      "##띄": 5463,
      "##섀": 5464,
      "##쫑": 5465,
      "##엨": 5466,
      "##엌": 5467,
      "##😚": 5468,
      "##낰": 5469,
      "##멎": 5470,
      "##🇰": 5471,
      "##캡": 5472,
      "##슐": 5473,
      "##쌓": 5474,
      "##쏟": 5475,
      "##💯": 5476,
      "##떵": 5477,
      "##탉": 5478,
      "##릅": 5479,
      "##꿁": 5480,
      "##쪙": 5481,
      "##q": 5482,
      "##괜": 5483,
      "##셩": 5484,
      "##뗘": 5485,
      "##탑": 5486,
      "##딪": 5487,
      "##듈": 5488,
      "##긧": 5489,
      "##짚": 5490,
      "##뺄": 5491,
      "##Y": 5492,
      "##젔": 5493,
      "##벵": 5494,
      "##핧": 5495,
      "##앓": 5496,
      "##😢": 5497,
      "##솟": 5498,
      "##궤": 5499,
      "##펙": 5500,
      "##븅": 5501,
      "##뒺": 5502,
      "##닳": 5503,
      "##잫": 5504,
      "##꽁": 5505,
      "##뱔": 5506,
      "##뎅": 5507,
      "##뭇": 5508,
      "##씹": 5509,
      "##컫": 5510,
      "##죗": 5511,
      "##됀": 5512,
      "##맺": 5513,
      "##묶": 5514,
      "##킴": 5515,
      "##셰": 5516,
      "##밸": 5517,
      "##굼": 5518,
      "##혓": 5519,
      "##됏": 5520,
      "##✋": 5521,
      "##숑": 5522,
      "##헥": 5523,
      "##씐": 5524,
      "##헹": 5525,
      "##잤": 5526,
      "##찜": 5527,
      "##넛": 5528,
      "##튕": 5529,
      "##😬": 5530,
      "##볶": 5531,
      "##❤": 5532,
      "##펴": 5533,
      "##핀": 5534,
      "##흰": 5535,
      "##끙": 5536,
      "##닿": 5537,
      "##찹": 5538,
      "##잨": 5539,
      "##깻": 5540,
      "##샷": 5541,
      "##😄": 5542,
      "##뜬": 5543,
      "##릉": 5544,
      "##겋": 5545,
      "##😝": 5546,
      "##롯": 5547,
      "##쥑": 5548,
      "##꾜": 5549,
      "##슝": 5550,
      "##🇳": 5551,
      "##엑": 5552,
      "##샄": 5553,
      "##뀐": 5554,
      "##컸": 5555,
      "##칵": 5556,
      "##칼": 5557,
      "##졔": 5558,
      "##🙇": 5559,
      "##왝": 5560,
      "##🏽": 5561,
      "##♀": 5562,
      "##튄": 5563,
      "##🇵": 5564,
      "##뜩": 5565,
      "##잊": 5566,
      "##닷": 5567,
      "##z": 5568,
      "##좁": 5569,
      "##셕": 5570,
      "##켄": 5571,
      "##걔": 5572,
      "##얷": 5573,
      "##뵌": 5574,
      "##샴": 5575,
      "##죵": 5576,
      "##폄": 5577,
      "##맷": 5578,
      "##띨": 5579,
      "##😃": 5580,
      "##🌸": 5581,
      "##🌼": 5582,
      "##캄": 5583,
      "##죌": 5584,
      "##읶": 5585,
      "##👉": 5586,
      "##쌌": 5587,
      "##겔": 5588,
      "##얔": 5589,
      "##뱄": 5590,
      "##쵝": 5591,
      "##궜": 5592,
      "##샙": 5593,
      "##귈": 5594,
      "##빳": 5595,
      "##먄": 5596,
      "##헴": 5597,
      "##렘": 5598,
      "##돔": 5599,
      "##룻": 5600,
      "##횟": 5601,
      "##펠": 5602,
      "##뗀": 5603,
      "##꿋": 5604,
      "##찻": 5605,
      "##썻": 5606,
      "##팼": 5607,
      "##넸": 5608,
      "##뤌": 5609,
      "##긂": 5610,
      "##밬": 5611,
      "##곀": 5612,
      "##빰": 5613,
      "##웹": 5614,
      "##넝": 5615,
      "##긁": 5616,
      "##👿": 5617,
      "##믹": 5618,
      "##넴": 5619,
      "##넥": 5620,
      "##팟": 5621,
      "##헨": 5622,
      "##닉": 5623,
      "##뮬": 5624,
      "##퐉": 5625,
      "##킵": 5626,
      "##띁": 5627,
      "##윔": 5628,
      "##탤": 5629,
      "##떙": 5630,
      "##💢": 5631,
      "##몾": 5632,
      "##쳔": 5633,
      "##봨": 5634,
      "##핣": 5635,
      "##꿉": 5636,
      "##쥭": 5637,
      "##쭤": 5638,
      "##쮸": 5639,
      "##쎼": 5640,
      "##밧": 5641,
      "##랼": 5642,
      "##샥": 5643,
      "##뻣": 5644,
      "##섞": 5645,
      "##퍅": 5646,
      "##늄": 5647,
      "##😱": 5648,
      "##깅": 5649,
      "##헛": 5650,
      "##륨": 5651,
      "##쥥": 5652,
      "##💐": 5653,
      "##챵": 5654,
      "##헙": 5655,
      "##랰": 5656,
      "##긑": 5657,
      "##늦": 5658,
      "##젭": 5659,
      "##멊": 5660,
      "##죡": 5661,
      "##벚": 5662,
      "##휠": 5663,
      "##늕": 5664,
      "##녴": 5665,
      "##돛": 5666,
      "##😣": 5667,
      "##싀": 5668,
      "##☺": 5669,
      "##겻": 5670,
      "##톈": 5671,
      "##멜": 5672,
      "##렛": 5673,
      "##쬐": 5674,
      "##🔞": 5675,
      "##쩜": 5676,
      "##듄": 5677,
      "##륵": 5678,
      "##텃": 5679,
      "##몫": 5680,
      "##헷": 5681,
      "##😑": 5682,
      "##훌": 5683,
      "##덟": 5684,
      "##싣": 5685,
      "##즙": 5686,
      "##🌺": 5687,
      "##🍑": 5688,
      "##💪": 5689,
      "##붇": 5690,
      "##툽": 5691,
      "##곷": 5692,
      "##쌩": 5693,
      "##붜": 5694,
      "##줜": 5695,
      "##빔": 5696,
      "##쨀": 5697,
      "##눕": 5698,
      "##챦": 5699,
      "##죤": 5700,
      "##👃": 5701,
      "##퓰": 5702,
      "##궐": 5703,
      "##캤": 5704,
      "##싥": 5705,
      "##귾": 5706,
      "##솬": 5707,
      "##🐦": 5708,
      "##🗝": 5709,
      "##깃": 5710,
      "##덧": 5711,
      "##쨔": 5712,
      "##곬": 5713,
      "##땀": 5714,
      "##렺": 5715,
      "##엮": 5716,
      "##릳": 5717,
      "##펨": 5718,
      "##툐": 5719,
      "##죙": 5720,
      "##룍": 5721,
      "##쥔": 5722,
      "##갭": 5723,
      "##잰": 5724,
      "##녘": 5725,
      "##킁": 5726,
      "##컥": 5727,
      "##끤": 5728,
      "##쉅": 5729,
      "##잆": 5730,
      "##넵": 5731,
      "##둿": 5732,
      "##냇": 5733,
      "##🔊": 5734,
      "##✊": 5735,
      "##얏": 5736,
      "##샎": 5737,
      "##븍": 5738,
      "##굿": 5739,
      "##슘": 5740,
      "##쒸": 5741,
      "##뫌": 5742,
      "##켯": 5743,
      "##퀵": 5744,
      "##샹": 5745,
      "##헀": 5746,
      "##쉔": 5747,
      "##잟": 5748,
      "##븡": 5749,
      "##쮜": 5750,
      "##욨": 5751,
      "##퀄": 5752,
      "##슾": 5753,
      "##쑥": 5754,
      "##첼": 5755,
      "##놧": 5756,
      "##촹": 5757,
      "##뭤": 5758,
      "##쫒": 5759,
      "##톱": 5760,
      "##뚤": 5761,
      "##횐": 5762,
      "##돵": 5763,
      "##쿸": 5764,
      "##낑": 5765,
      "##쒜": 5766,
      "##찼": 5767,
      "##❗": 5768,
      "##쭈": 5769,
      "##뮤": 5770,
      "##잽": 5771,
      "##딕": 5772,
      "##왁": 5773,
      "##씞": 5774,
      "##쏙": 5775,
      "##댘": 5776,
      "##찿": 5777,
      "##🎊": 5778,
      "##⚡": 5779,
      "##☔": 5780,
      "##앜": 5781,
      "##찝": 5782,
      "##😛": 5783,
      "##눗": 5784,
      "##뺀": 5785,
      "##🤗": 5786,
      "##겆": 5787,
      "##뢀": 5788,
      "##쏜": 5789,
      "##쉨": 5790,
      "##컼": 5791,
      "##됵": 5792,
      "##옺": 5793,
      "##츼": 5794,
      "##쥤": 5795,
      "##겧": 5796,
      "##겜": 5797,
      "##웰": 5798,
      "##빻": 5799,
      "##🐒": 5800,
      "##믜": 5801,
      "##뉨": 5802,
      "##곘": 5803,
      "##믈": 5804,
      "##끽": 5805,
      "##엾": 5806,
      "##꿨": 5807,
      "##딹": 5808,
      "##쭝": 5809,
      "##솽": 5810,
      "##짬": 5811,
      "##맗": 5812,
      "##곅": 5813,
      "##켐": 5814,
      "##잭": 5815,
      "##웜": 5816,
      "##낚": 5817,
      "##섺": 5818,
      "##읺": 5819,
      "##쫓": 5820,
      "##뫄": 5821,
      "##👻": 5822,
      "##닏": 5823,
      "##됴": 5824,
      "##댑": 5825,
      "##쫏": 5826,
      "##룟": 5827,
      "##쭐": 5828,
      "##❣": 5829,
      "##먀": 5830,
      "##넉": 5831,
      "##룐": 5832,
      "##뚠": 5833,
      "##쯰": 5834,
      "##꿜": 5835,
      "##Z": 5836,
      "##줏": 5837,
      "##펄": 5838,
      "##낟": 5839,
      "##펼": 5840,
      "##븥": 5841,
      "##뽀": 5842,
      "##빗": 5843,
      "##줭": 5844,
      "##뺨": 5845,
      "##돰": 5846,
      "##뇸": 5847,
      "##곗": 5848,
      "##뱁": 5849,
      "##흣": 5850,
      "##깉": 5851,
      "##뭏": 5852,
      "##봘": 5853,
      "##뎠": 5854,
      "##덱": 5855,
      "##뮌": 5856,
      "##쌉": 5857,
      "##욿": 5858,
      "##옮": 5859,
      "##앴": 5860,
      "##🇯": 5861,
      "##좇": 5862,
      "##옘": 5863,
      "##볭": 5864,
      "##🐀": 5865,
      "##🐓": 5866,
      "##🐔": 5867,
      "##❕": 5868,
      "##넓": 5869,
      "##탬": 5870,
      "##빕": 5871,
      "##뼉": 5872,
      "##굉": 5873,
      "##맂": 5874,
      "##츤": 5875,
      "##졍": 5876,
      "##😮": 5877,
      "##슁": 5878,
      "##앟": 5879,
      "##맀": 5880,
      "##츨": 5881,
      "##콥": 5882,
      "##땔": 5883,
      "##🥰": 5884,
      "##닺": 5885,
      "##😅": 5886,
      "##긱": 5887,
      "##쑝": 5888,
      "##☄": 5889,
      "##🌋": 5890,
      "##뭣": 5891,
      "##욥": 5892,
      "##댸": 5893,
      "##쳬": 5894,
      "##쐬": 5895,
      "##핍": 5896,
      "##홥": 5897,
      "##뮈": 5898,
      "##멱": 5899,
      "##냰": 5900,
      "##👎": 5901,
      "##죹": 5902,
      "##윙": 5903,
      "##깤": 5904,
      "##갇": 5905,
      "##띵": 5906,
      "##😤": 5907,
      "##딬": 5908,
      "##읊": 5909,
      "##닶": 5910,
      "##몆": 5911,
      "##쏼": 5912,
      "##꽤": 5913,
      "##웧": 5914,
      "##킷": 5915,
      "##낱": 5916,
      "##쏭": 5917,
      "##쒀": 5918,
      "##쓥": 5919,
      "##랠": 5920,
      "##돟": 5921,
      "##뺑": 5922,
      "##엠": 5923,
      "##삔": 5924,
      "##🗡": 5925,
      "##🔫": 5926,
      "##좐": 5927,
      "##굥": 5928,
      "##룽": 5929,
      "##땨": 5930,
      "##탹": 5931,
      "##콕": 5932,
      "##뿍": 5933,
      "##뺘": 5934,
      "##👊": 5935,
      "##훽": 5936,
      "##캍": 5937,
      "##😜": 5938,
      "##👹": 5939,
      "##🔪": 5940,
      "##짹": 5941,
      "##좟": 5942,
      "##왑": 5943,
      "##얇": 5944,
      "##찟": 5945,
      "##냠": 5946,
      "##얽": 5947,
      "##섥": 5948,
      "##🔵": 5949,
      "##닽": 5950,
      "##썸": 5951,
      "##쨋": 5952,
      "##윽": 5953,
      "##좡": 5954,
      "##삑": 5955,
      "##뿟": 5956,
      "##깠": 5957,
      "##쯍": 5958,
      "##뺐": 5959,
      "##찧": 5960,
      "##쯩": 5961,
      "##쟤": 5962,
      "##냣": 5963,
      "##뵹": 5964,
      "##쯔": 5965,
      "##껭": 5966,
      "##😀": 5967,
      "##펌": 5968,
      "##붐": 5969,
      "##럐": 5970,
      "##냘": 5971,
      "##챱": 5972,
      "##쟉": 5973,
      "##섶": 5974,
      "##쭛": 5975,
      "##🎤": 5976,
      "##튭": 5977,
      "##🐈": 5978,
      "##럾": 5979,
      "##🤣": 5980,
      "##🎴": 5981,
      "##쾨": 5982,
      "##쪾": 5983,
      "##밨": 5984,
      "##솜": 5985,
      "##큿": 5986,
      "##첸": 5987,
      "##굑": 5988,
      "##흩": 5989,
      "##닠": 5990,
      "##몱": 5991,
      "##짧": 5992,
      "##몐": 5993,
      "##췄": 5994,
      "##썌": 5995,
      "##뫈": 5996,
      "##뚸": 5997,
      "##롳": 5998,
      "##툴": 5999,
      "##뎔": 6000,
      "##💩": 6001,
      "##텀": 6002,
      "##쫀": 6003,
      "##봫": 6004,
      "##셤": 6005,
      "##곹": 6006,
      "##맵": 6007,
      "##삯": 6008,
      "##뗌": 6009,
      "##😆": 6010,
      "##찡": 6011,
      "##쨍": 6012,
      "##밉": 6013,
      "##😉": 6014,
      "##😌": 6015,
      "##챠": 6016,
      "##딋": 6017,
      "##햄": 6018,
      "##죳": 6019,
      "##줕": 6020,
      "##햔": 6021,
      "##띤": 6022,
      "##읮": 6023,
      "##윌": 6024,
      "##쬬": 6025,
      "##넙": 6026,
      "##맄": 6027,
      "##둣": 6028,
      "##⃣": 6029,
      "##😙": 6030,
      "##🐤": 6031,
      "##깥": 6032,
      "##뿜": 6033,
      "##섘": 6034,
      "##✔": 6035,
      "##😰": 6036,
      "##팢": 6037,
      "##릐": 6038,
      "##늣": 6039,
      "##쥴": 6040,
      "##뮨": 6041,
      "##콴": 6042,
      "##꽐": 6043,
      "##🎶": 6044,
      "##썪": 6045,
      "##😘": 6046,
      "##멩": 6047,
      "##쎗": 6048,
      "##🦀": 6049,
      "##쭵": 6050,
      "##괼": 6051,
      "##킼": 6052,
      "##👐": 6053,
      "##섕": 6054,
      "##😞": 6055,
      "##챘": 6056,
      "##😁": 6057,
      "##봥": 6058,
      "##앚": 6059,
      "##✨": 6060,
      "##솨": 6061,
      "##랒": 6062,
      "##펐": 6063,
      "##챌": 6064,
      "##꺾": 6065,
      "##랲": 6066,
      "##썰": 6067,
      "##떱": 6068,
      "##퀘": 6069,
      "##켝": 6070,
      "##뎄": 6071,
      "##숵": 6072,
      "##꼇": 6073,
      "##폈": 6074,
      "##맟": 6075,
      "##봍": 6076,
      "##닸": 6077,
      "##쿤": 6078,
      "##핸": 6079,
      "##폇": 6080,
      "##듥": 6081,
      "##🦋": 6082,
      "##곸": 6083,
      "##돚": 6084,
      "##킝": 6085,
      "##∼": 6086,
      "##꽝": 6087,
      "##둟": 6088,
      "##☠": 6089,
      "##듸": 6090,
      "##뵐": 6091,
      "##퍈": 6092,
      "##ㅄ": 6093,
      "##싰": 6094,
      "##쇡": 6095,
      "##싳": 6096,
      "##넠": 6097,
      "##뺙": 6098,
      "##늑": 6099,
      "##🐝": 6100,
      "##룔": 6101,
      "##쉼": 6102,
      "##깼": 6103,
      "##훍": 6104,
      "##😈": 6105,
      "##🤕": 6106,
      "##💀": 6107,
      "##🤑": 6108,
      "##🤢": 6109,
      "##🤮": 6110,
      "##쥣": 6111,
      "##눙": 6112,
      "##컹": 6113,
      "##▶": 6114,
      "##솓": 6115,
      "##쉭": 6116,
      "##짭": 6117,
      "##윘": 6118,
      "##🐿": 6119,
      "##춧": 6120,
      "##깢": 6121,
      "##옶": 6122,
      "##🐴": 6123,
      "##훗": 6124,
      "##헣": 6125,
      "##옸": 6126,
      "##듷": 6127,
      "##겇": 6128,
      "##뭄": 6129,
      "##딮": 6130,
      "##낏": 6131,
      "##녤": 6132,
      "##뻭": 6133,
      "##홉": 6134,
      "##뿡": 6135,
      "##샜": 6136,
      "##옐": 6137,
      "##숲": 6138,
      "##쬭": 6139,
      "##🎈": 6140,
      "##떔": 6141,
      "##훅": 6142,
      "##멉": 6143,
      "##쨈": 6144,
      "##🏿": 6145,
      "##궸": 6146,
      "##ㄺ": 6147,
      "##팁": 6148,
      "##젿": 6149,
      "##싴": 6150,
      "##곪": 6151,
      "##✴": 6152,
      "##넜": 6153,
      "##켤": 6154,
      "##맇": 6155,
      "##픙": 6156,
      "##😊": 6157,
      "##쐑": 6158,
      "##샆": 6159,
      "##캥": 6160,
      "##🍊": 6161,
      "##삲": 6162,
      "##💛": 6163,
      "##땠": 6164,
      "##⛔": 6165,
      "##늧": 6166,
      "##칮": 6167,
      "##캅": 6168,
      "##겈": 6169,
      "##툭": 6170,
      "##🚨": 6171,
      "##좔": 6172,
      "##븨": 6173,
      "##훨": 6174,
      "##톼": 6175,
      "##뼝": 6176,
      "##💰": 6177,
      "##궹": 6178,
      "##괞": 6179,
      "##쨌": 6180,
      "##쾈": 6181,
      "##🥺": 6182,
      "##틋": 6183,
      "##뿅": 6184,
      "##쯕": 6185,
      "##팥": 6186,
      "##씦": 6187,
      "##쉿": 6188,
      "##씽": 6189,
      "##홑": 6190,
      "##렣": 6191,
      "##펏": 6192,
      "##벋": 6193,
      "##💝": 6194,
      "##얭": 6195,
      "##뻬": 6196,
      "##🙏": 6197,
      "##퍄": 6198,
      "##줙": 6199,
      "##듕": 6200,
      "##쒼": 6201,
      "##뀬": 6202,
      "##큽": 6203,
      "##빱": 6204,
      "##얍": 6205,
      "##쟝": 6206,
      "##😗": 6207,
      "##짠": 6208,
      "##껼": 6209,
      "##🐽": 6210,
      "##툰": 6211,
      "##꿧": 6212,
      "##빸": 6213,
      "##뺍": 6214,
      "##끋": 6215,
      "##쫙": 6216,
      "##걑": 6217,
      "##굔": 6218,
      "##쪕": 6219,
      "##샡": 6220,
      "##놉": 6221,
      "##밣": 6222,
      "##챤": 6223,
      "##꿘": 6224,
      "##쳡": 6225,
      "##롴": 6226,
      "##퉤": 6227,
      "##츙": 6228,
      "##쌨": 6229,
      "##궘": 6230,
      "##🚴": 6231,
      "##🤩": 6232,
      "##읅": 6233,
      "##놐": 6234,
      "##갛": 6235,
      "##눴": 6236,
      "##늪": 6237,
      "##엡": 6238,
      "##쳉": 6239,
      "##샬": 6240,
      "##믓": 6241,
      "##쏫": 6242,
      "##겍": 6243,
      "##츱": 6244,
      "##얜": 6245,
      "##쉈": 6246,
      "##왠": 6247,
      "##웬": 6248,
      "##돳": 6249,
      "##싡": 6250,
      "##촘": 6251,
      "##큘": 6252,
      "##앰": 6253,
      "##뭥": 6254,
      "##쌖": 6255,
      "##닞": 6256,
      "##뼌": 6257,
      "##췌": 6258,
      "##똬": 6259,
      "##솤": 6260,
      "##쉘": 6261,
      "##뎆": 6262,
      "##✂": 6263,
      "##듧": 6264,
      "##뢉": 6265,
      "##삤": 6266,
      "##🌷": 6267,
      "##쥰": 6268,
      "##봊": 6269,
      "##홰": 6270,
      "##죱": 6271,
      "##젴": 6272,
      "##잿": 6273,
      "##켷": 6274,
      "##뀜": 6275,
      "##갷": 6276,
      "##뽈": 6277,
      "##뚕": 6278,
      "##풉": 6279,
      "##🐵": 6280,
      "##⭐": 6281,
      "##늗": 6282,
      "##녈": 6283,
      "##뽤": 6284,
      "##쪈": 6285,
      "##멕": 6286,
      "##옿": 6287,
      "##🤭": 6288,
      "##튬": 6289,
      "##됒": 6290,
      "##🐯": 6291,
      "##풋": 6292,
      "##뀝": 6293,
      "##👣": 6294,
      "##엦": 6295,
      "##쓉": 6296,
      "##냑": 6297,
      "##멧": 6298,
      "##쐰": 6299,
      "##캇": 6300,
      "##밈": 6301,
      "##🤯": 6302,
      "##싨": 6303,
      "##샣": 6304,
      "##짴": 6305,
      "##👦": 6306,
      "##🎗": 6307,
      "##틔": 6308,
      "##쓩": 6309,
      "##☹": 6310,
      "##핝": 6311,
      "##맜": 6312,
      "##챡": 6313,
      "##🐅": 6314,
      "##쑨": 6315,
      "##궂": 6316,
      "##굵": 6317,
      "##붸": 6318,
      "##싁": 6319,
      "##좍": 6320,
      "##😨": 6321,
      "##듐": 6322,
      "##믕": 6323,
      "##🙋": 6324,
      "##깬": 6325,
      "##눜": 6326,
      "##렐": 6327,
      "##볌": 6328,
      "##웍": 6329,
      "##퇄": 6330,
      "##돴": 6331,
      "##뭅": 6332,
      "##쨩": 6333,
      "##묜": 6334,
      "##쐭": 6335,
      "##🙆": 6336,
      "##맴": 6337,
      "##돨": 6338,
      "##🚗": 6339,
      "##쇜": 6340,
      "##윾": 6341,
      "##먕": 6342,
      "##푠": 6343,
      "##즨": 6344,
      "##밫": 6345,
      "##읆": 6346,
      "##쎔": 6347,
      "##앎": 6348,
      "##🐎": 6349,
      "##쟹": 6350,
      "##🤤": 6351,
      "##쌋": 6352,
      "##쿼": 6353,
      "##읻": 6354,
      "##짢": 6355,
      "##텁": 6356,
      "##젛": 6357,
      "##턔": 6358,
      "##👟": 6359,
      "##욜": 6360,
      "##놰": 6361,
      "##긐": 6362,
      "##릊": 6363,
      "##듵": 6364,
      "##궝": 6365,
      "##궉": 6366,
      "##쐈": 6367,
      "##켸": 6368,
      "##😥": 6369,
      "##톄": 6370,
      "##몈": 6371,
      "##앏": 6372,
      "##👴": 6373,
      "##팤": 6374,
      "##멌": 6375,
      "##♣": 6376,
      "##뭍": 6377,
      "##왼": 6378,
      "##옄": 6379,
      "##🌶": 6380,
      "##릔": 6381,
      "##듨": 6382,
      "##갲": 6383,
      "##뺃": 6384,
      "##헠": 6385,
      "##🙌": 6386,
      "##뻤": 6387,
      "##롹": 6388,
      "##힣": 6389,
      "##싞": 6390,
      "##뉸": 6391,
      "##벱": 6392,
      "##뒹": 6393,
      "##🤧": 6394,
      "##🤒": 6395,
      "##깧": 6396,
      "##횃": 6397,
      "##읉": 6398,
      "##킄": 6399,
      "##쀼": 6400,
      "##뙈": 6401,
      "##갂": 6402,
      "##뀨": 6403,
      "##놋": 6404,
      "##딷": 6405,
      "##🐭": 6406,
      "##켬": 6407,
      "##맆": 6408,
      "##롄": 6409,
      "##팜": 6410,
      "##쇗": 6411,
      "##☀": 6412,
      "##앍": 6413,
      "##섁": 6414,
      "##샋": 6415,
      "##맍": 6416,
      "##곰": 6417,
      "##줒": 6418,
      "##읏": 6419,
      "##츌": 6420,
      "##눅": 6421,
      "##붛": 6422,
      "##옇": 6423,
      "##튤": 6424,
      "##돱": 6425,
      "##🎇": 6426,
      "##빋": 6427,
      "##셑": 6428,
      "##👄": 6429,
      "##뗐": 6430,
      "##죕": 6431,
      "##밯": 6432,
      "##쁩": 6433,
      "##깰": 6434,
      "##롲": 6435,
      "##홋": 6436,
      "##햏": 6437,
      "##윅": 6438,
      "##뽁": 6439,
      "##듫": 6440,
      "##렿": 6441,
      "##괌": 6442,
      "##봏": 6443,
      "##🎸": 6444,
      "##🥁": 6445,
      "##💊": 6446,
      "##뽐": 6447,
      "##힜": 6448,
      "##폿": 6449,
      "##퓹": 6450,
      "##뱐": 6451,
      "##볐": 6452,
      "##👤": 6453,
      "##👥": 6454,
      "##쓔": 6455,
      "##😲": 6456,
      "##즞": 6457,
      "##숍": 6458,
      "##🐱": 6459,
      "##😵": 6460,
      "##앋": 6461,
      "##렼": 6462,
      "##🏼": 6463,
      "##졈": 6464,
      "##텄": 6465,
      "##봬": 6466,
      "##댙": 6467,
      "##쉣": 6468,
      "##곶": 6469,
      "##겝": 6470,
      "##긇": 6471,
      "##츈": 6472,
      "##싲": 6473,
      "##뭡": 6474,
      "##😖": 6475,
      "##🌹": 6476,
      "##뱍": 6477,
      "##뷴": 6478,
      "##싢": 6479,
      "##뼤": 6480,
      "##👁": 6481,
      "##깈": 6482,
      "##낵": 6483,
      "##얖": 6484,
      "##쟜": 6485,
      "##퀀": 6486,
      "##췃": 6487,
      "##쳦": 6488,
      "##꾤": 6489,
      "##씝": 6490,
      "##짗": 6491,
      "##껰": 6492,
      "##쐐": 6493,
      "##🤔": 6494,
      "##옙": 6495,
      "##벳": 6496,
      "##혝": 6497,
      "##젰": 6498,
      "##핟": 6499,
      "##햤": 6500,
      "##쳌": 6501,
      "##긿": 6502,
      "##욛": 6503,
      "##잩": 6504,
      "##젬": 6505,
      "##콰": 6506,
      "##읒": 6507,
      "##얒": 6508,
      "##긕": 6509,
      "##끕": 6510,
      "##곌": 6511,
      "##휀": 6512,
      "##깞": 6513,
      "##🇪": 6514,
      "##🌕": 6515,
      "##뉩": 6516,
      "##푹": 6517,
      "##쌬": 6518,
      "##셲": 6519,
      "##띔": 6520,
      "##엳": 6521,
      "##똔": 6522,
      "##🙂": 6523,
      "##놌": 6524,
      "##굻": 6525,
      "##콱": 6526,
      "##맑": 6527,
      "##좉": 6528,
      "##뜽": 6529,
      "##갗": 6530,
      "##칀": 6531,
      "##랋": 6532,
      "##뺴": 6533,
      "##툥": 6534,
      "##쉌": 6535,
      "##얗": 6536,
      "##젹": 6537,
      "##텬": 6538,
      "##딤": 6539,
      "##빩": 6540,
      "##샅": 6541,
      "##핌": 6542,
      "##😓": 6543,
      "##🤦": 6544,
      "##읁": 6545,
      "##쪘": 6546,
      "##쫍": 6547,
      "##렆": 6548,
      "##🎵": 6549,
      "##죷": 6550,
      "##왘": 6551,
      "##☢": 6552,
      "##🇨": 6553,
      "##먿": 6554,
      "##섣": 6555,
      "##앃": 6556,
      "##뉠": 6557,
      "##싮": 6558,
      "##궄": 6559,
      "##찎": 6560,
      "##랃": 6561,
      "##꿎": 6562,
      "##뙤": 6563,
      "##쐉": 6564,
      "##쌰": 6565,
      "##얶": 6566,
      "##댤": 6567,
      "##퇸": 6568,
      "##셥": 6569,
      "##땄": 6570,
      "##씼": 6571,
      "##걩": 6572,
      "##읭": 6573,
      "##낍": 6574,
      "##맬": 6575,
      "##렠": 6576,
      "##🎄": 6577,
      "##뎐": 6578,
      "##🥚": 6579,
      "##▪": 6580,
      "##쇅": 6581,
      "##씰": 6582,
      "##롓": 6583,
      "##👞": 6584,
      "##슌": 6585,
      "##깄": 6586,
      "##픕": 6587,
      "##믽": 6588,
      "##🔕": 6589,
      "##😳": 6590,
      "##꾀": 6591,
      "##핓": 6592,
      "##🐮": 6593,
      "##욯": 6594,
      "##뻰": 6595,
      "##벡": 6596,
      "##쿰": 6597,
      "##랳": 6598,
      "##💣": 6599,
      "##궙": 6600,
      "##펩": 6601,
      "##엪": 6602,
      "##뜀": 6603,
      "##랟": 6604,
      "##㊗": 6605,
      "##뙨": 6606,
      "##휼": 6607,
      "##촨": 6608,
      "##얕": 6609,
      "##힉": 6610,
      "##쎜": 6611,
      "##헁": 6612,
      "##퍙": 6613,
      "##궛": 6614,
      "##🙊": 6615,
      "##🙈": 6616,
      "##댭": 6617,
      "##뾰": 6618,
      "##퍌": 6619,
      "##갬": 6620,
      "##솼": 6621,
      "##짔": 6622,
      "##늫": 6623,
      "##쬑": 6624,
      "##🐧": 6625,
      "##뎟": 6626,
      "##껜": 6627,
      "##뒝": 6628,
      "##🌈": 6629,
      "##읠": 6630,
      "##톻": 6631,
      "##퓡": 6632,
      "##쭀": 6633,
      "##턍": 6634,
      "##쎠": 6635,
      "##🐉": 6636,
      "##삣": 6637,
      "##뗄": 6638,
      "##굣": 6639,
      "##촥": 6640,
      "##캭": 6641,
      "##싪": 6642,
      "##뇜": 6643,
      "##🌝": 6644,
      "##솎": 6645,
      "##솅": 6646,
      "##벧": 6647,
      "##낡": 6648,
      "##뻡": 6649,
      "##욋": 6650,
      "##팰": 6651,
      "##닜": 6652,
      "##팹": 6653,
      "##훻": 6654,
      "##젘": 6655,
      "##띌": 6656,
      "##쭙": 6657,
      "##젆": 6658,
      "##뻿": 6659,
      "##쯪": 6660,
      "##뢍": 6661,
      "##묭": 6662,
      "##뤂": 6663,
      "##🥳": 6664,
      "##힝": 6665,
      "##욷": 6666,
      "##챽": 6667,
      "##왤": 6668,
      "##🔸": 6669,
      "##쪅": 6670,
      "##좈": 6671,
      "##롐": 6672,
      "##둰": 6673,
      "##솄": 6674,
      "##잴": 6675,
      "##귁": 6676,
      "##햠": 6677,
      "##덫": 6678,
      "##텼": 6679,
      "##숄": 6680,
      "##쨥": 6681,
      "##🖤": 6682,
      "##죸": 6683,
      "##콬": 6684,
      "##켱": 6685,
      "##줠": 6686,
      "##렜": 6687,
      "##룁": 6688,
      "##쇤": 6689,
      "##🙉": 6690,
      "##얙": 6691,
      "##🐩": 6692,
      "##✳": 6693,
      "##믁": 6694,
      "##롷": 6695,
      "##엏": 6696,
      "##🎯": 6697,
      "##댠": 6698,
      "##챗": 6699,
      "##젙": 6700,
      "##넿": 6701,
      "##🕷": 6702,
      "##옼": 6703,
      "##🍻": 6704,
      "##쭘": 6705,
      "##뷩": 6706,
      "##튈": 6707,
      "##🦮": 6708,
      "##닟": 6709,
      "##붠": 6710,
      "##셌": 6711,
      "##딥": 6712,
      "##핤": 6713,
      "##햊": 6714,
      "##섻": 6715,
      "##뭨": 6716,
      "##윕": 6717,
      "##켙": 6718,
      "##뽜": 6719,
      "##뫙": 6720,
      "##🚔": 6721,
      "##셯": 6722,
      "##넎": 6723,
      "##쒞": 6724,
      "##췽": 6725,
      "##븜": 6726,
      "##렄": 6727,
      "##욍": 6728,
      "##뮷": 6729,
      "##듲": 6730,
      "##괂": 6731,
      "##겂": 6732,
      "##♨": 6733,
      "##뛔": 6734,
      "##쌘": 6735,
      "##탰": 6736,
      "##잪": 6737,
      "##냌": 6738,
      "##뼜": 6739,
      "##긒": 6740,
      "##볻": 6741,
      "##🧡": 6742,
      "##솈": 6743,
      "##삷": 6744,
      "##떽": 6745,
      "##👺": 6746,
      "##빆": 6747,
      "##끘": 6748,
      "##좸": 6749,
      "##🐥": 6750,
      "##윳": 6751,
      "##귓": 6752,
      "##챔": 6753,
      "##쯥": 6754,
      "##꾾": 6755,
      "##뜷": 6756,
      "##볓": 6757,
      "##뵙": 6758,
      "##쳧": 6759,
      "##셴": 6760,
      "##쉡": 6761,
      "##😋": 6762,
      "##렙": 6763,
      "##줗": 6764,
      "##휩": 6765,
      "##룜": 6766,
      "##💤": 6767,
      "##햡": 6768,
      "##쁀": 6769,
      "##놘": 6770,
      "##뽝": 6771,
      "##봔": 6772,
      "##짇": 6773,
      "##힛": 6774,
      "##넽": 6775,
      "##낔": 6776,
      "##깸": 6777,
      "##쟀": 6778,
      "##쏀": 6779,
      "##갮": 6780,
      "##💦": 6781,
      "##챃": 6782,
      "##읕": 6783,
      "##겢": 6784,
      "##옜": 6785,
      "##튿": 6786,
      "##🎼": 6787,
      "##쥼": 6788,
      "##톳": 6789,
      "##웩": 6790,
      "##샂": 6791,
      "##홱": 6792,
      "##🐙": 6793,
      "##🐺": 6794,
      "##🐫": 6795,
      "##댇": 6796,
      "##퀼": 6797,
      "##죻": 6798,
      "##퉷": 6799,
      "##굘": 6800,
      "##😇": 6801,
      "##듼": 6802,
      "##😷": 6803,
      "##뉼": 6804,
      "##쵸": 6805,
      "##🍈": 6806,
      "##🍉": 6807,
      "##⬛": 6808,
      "##뢈": 6809,
      "##냊": 6810,
      "##뮹": 6811,
      "##켭": 6812,
      "##롣": 6813,
      "##맸": 6814,
      "##똒": 6815,
      "##춍": 6816,
      "##뱓": 6817,
      "##🕯": 6818,
      "##좠": 6819,
      "##🐁": 6820,
      "##뵜": 6821,
      "##맼": 6822,
      "##🏾": 6823,
      "##쫘": 6824,
      "##껬": 6825,
      "##뤗": 6826,
      "##캣": 6827,
      "##잕": 6828,
      "##꿑": 6829,
      "##앝": 6830,
      "##묙": 6831,
      "##숼": 6832,
      "##😏": 6833,
      "##뚣": 6834,
      "##켁": 6835,
      "##똭": 6836,
      "##🔹": 6837,
      "##붏": 6838,
      "##싕": 6839,
      "##됍": 6840,
      "##릏": 6841,
      "##숸": 6842,
      "##퓌": 6843,
      "##퉸": 6844,
      "##뱡": 6845,
      "##겊": 6846,
      "##🐄": 6847,
      "##뗍": 6848,
      "##꺅": 6849,
      "##펵": 6850,
      "##엢": 6851,
      "##훙": 6852,
      "##🦜": 6853,
      "##뷘": 6854,
      "##걈": 6855,
      "##쨉": 6856,
      "##럲": 6857,
      "##됙": 6858,
      "##믐": 6859,
      "##훕": 6860,
      "##윱": 6861,
      "##몄": 6862,
      "##⛏": 6863,
      "##씅": 6864,
      "##쎀": 6865,
      "##휜": 6866,
      "##겓": 6867,
      "##챰": 6868,
      "##녠": 6869,
      "##🥶": 6870,
      "##👼": 6871,
      "##쓤": 6872,
      "##쭁": 6873,
      "##앸": 6874,
      "##븰": 6875,
      "##뱆": 6876,
      "##눰": 6877,
      "##빍": 6878,
      "##땈": 6879,
      "##웓": 6880,
      "##듁": 6881,
      "##얺": 6882,
      "##삵": 6883,
      "##큭": 6884,
      "##셓": 6885,
      "##🏃": 6886,
      "##🤸": 6887,
      "##🐨": 6888,
      "##줴": 6889,
      "##🐣": 6890,
      "##됼": 6891,
      "##읐": 6892,
      "##쎕": 6893,
      "##뽂": 6894,
      "##젯": 6895,
      "##딀": 6896,
      "##쯘": 6897,
      "##쒹": 6898,
      "##벴": 6899,
      "##짊": 6900,
      "##삳": 6901,
      "##왰": 6902,
      "##🦇": 6903,
      "##읔": 6904,
      "##샑": 6905,
      "##쉥": 6906,
      "##샇": 6907,
      "##떰": 6908,
      "##뜾": 6909,
      "##엗": 6910,
      "##닾": 6911,
      "##졑": 6912,
      "##띰": 6913,
      "##캈": 6914,
      "##뭬": 6915,
      "##촙": 6916,
      "##갹": 6917,
      "##쒴": 6918,
      "##찷": 6919,
      "##팎": 6920,
      "##눤": 6921,
      "##✌": 6922,
      "##😐": 6923,
      "##🛑": 6924,
      "##뺸": 6925,
      "##얐": 6926,
      "##짙": 6927,
      "##🍎": 6928,
      "##🍅": 6929,
      "##뷱": 6930,
      "##팻": 6931,
      "##짒": 6932,
      "##🌞": 6933,
      "##줟": 6934,
      "##삮": 6935,
      "##붑": 6936,
      "##텋": 6937,
      "##쥘": 6938,
      "##벰": 6939,
      "##윰": 6940,
      "##됗": 6941,
      "##🦍": 6942,
      "##삻": 6943,
      "##🎆": 6944,
      "##👑": 6945,
      "##믠": 6946,
      "##킅": 6947,
      "##엍": 6948,
      "##😩": 6949,
      "##쳫": 6950,
      "##땩": 6951,
      "##몯": 6952,
      "##깆": 6953,
      "##좝": 6954,
      "##멓": 6955,
      "##쎙": 6956,
      "##쫗": 6957,
      "##뫃": 6958,
      "##♠": 6959,
      "##💲": 6960,
      "##💸": 6961,
      "##땁": 6962,
      "##🤷": 6963,
      "##🔖": 6964,
      "##◀": 6965,
      "##쟂": 6966,
      "##짅": 6967,
      "##묠": 6968,
      "##🐾": 6969,
      "##밞": 6970,
      "##먜": 6971,
      "##줳": 6972,
      "##즥": 6973,
      "##럱": 6974,
      "##왚": 6975,
      "##긌": 6976,
      "##넋": 6977,
      "##🤨": 6978,
      "##뺠": 6979,
      "##🍞": 6980,
      "##곂": 6981,
      "##햅": 6982,
      "##텟": 6983,
      "##쎆": 6984,
      "##츳": 6985,
      "##➡": 6986,
      "##쏱": 6987,
      "##슼": 6988,
      "##👩": 6989,
      "##칬": 6990,
      "##햩": 6991,
      "##잀": 6992,
      "##늰": 6993,
      "##끅": 6994,
      "##👧": 6995,
      "##🐇": 6996,
      "##렂": 6997,
      "##햑": 6998,
      "##🇼": 6999,
      "##🇹": 7000,
      "##햬": 7001,
      "##🌚": 7002,
      "##😪": 7003,
      "##웽": 7004,
      "##럤": 7005,
      "##쳇": 7006,
      "##햘": 7007,
      "##췡": 7008,
      "##싑": 7009,
      "##땝": 7010,
      "##😶": 7011,
      "##🤛": 7012,
      "##🚫": 7013,
      "##🔨": 7014,
      "##🍄": 7015,
      "##📍": 7016,
      "##⭕": 7017,
      "##💋": 7018,
      "##🐰": 7019,
      "##읖": 7020,
      "##깦": 7021,
      "##😴": 7022,
      "##❄": 7023,
      "##팃": 7024,
      "##쑹": 7025,
      "##🧨": 7026,
      "##쵼": 7027,
      "##퇫": 7028,
      "##🥇": 7029,
      "##챨": 7030,
      "##푤": 7031,
      "##뉜": 7032,
      "##💘": 7033,
      "##쇆": 7034,
      "##샐": 7035,
      "##🤺": 7036,
      "##🐑": 7037,
      "##븝": 7038,
      "##쪌": 7039,
      "##똫": 7040,
      "##윀": 7041,
      "##풰": 7042,
      "##켘": 7043,
      "##뜌": 7044,
      "##뒨": 7045,
      "##뮐": 7046,
      "##녛": 7047,
      "##쌱": 7048,
      "##먺": 7049,
      "##훓": 7050,
      "##🌛": 7051,
      "##곃": 7052,
      "##풒": 7053,
      "##🎋": 7054,
      "##떧": 7055,
      "##옝": 7056,
      "##떈": 7057,
      "##뀠": 7058,
      "##💫": 7059,
      "##흭": 7060,
      "##꾿": 7061,
      "##😒": 7062,
      "##앂": 7063,
      "##찓": 7064,
      "##곺": 7065,
      "##짛": 7066,
      "##잍": 7067,
      "##♦": 7068,
      "##쎴": 7069,
      "##🔔": 7070,
      "##🌜": 7071,
      "##욪": 7072,
      "##🤪": 7073,
      "##읋": 7074,
      "##쨘": 7075,
      "##잂": 7076,
      "##🐛": 7077,
      "##쫩": 7078,
      "##팛": 7079,
      "##쑴": 7080,
      "##싷": 7081,
      "##겎": 7082,
      "##놁": 7083,
      "##🌿": 7084,
      "##줔": 7085,
      "##🍝": 7086,
      "##멨": 7087,
      "##둉": 7088,
      "##쾡": 7089,
      "##춴": 7090,
      "##씺": 7091,
      "##슆": 7092,
      "##탸": 7093,
      "##밐": 7094,
      "##🦁": 7095,
      "##뤡": 7096,
      "##⬇": 7097,
      "##롁": 7098,
      "##🚢": 7099,
      "##🐂": 7100,
      "##🥵": 7101,
      "##🤥": 7102,
      "##쵀": 7103,
      "##댖": 7104,
      "##븀": 7105,
      "##췐": 7106,
      "##🎺": 7107,
      "##잗": 7108,
      "##젇": 7109,
      "##읫": 7110,
      "##붂": 7111,
      "##🐍": 7112,
      "##먈": 7113,
      "##볔": 7114,
      "##죴": 7115,
      "##뇠": 7116,
      "##핻": 7117,
      "##🐗": 7118,
      "##섵": 7119,
      "##퇬": 7120,
      "##섲": 7121,
      "##쎌": 7122,
      "##쒔": 7123,
      "##틑": 7124,
      "##챴": 7125,
      "##🎃": 7126,
      "##🍀": 7127,
      "##늩": 7128,
      "##🍓": 7129,
      "##갋": 7130,
      "##쾐": 7131,
      "##📣": 7132,
      "##솝": 7133,
      "##퉜": 7134,
      "##👅": 7135,
      "##벝": 7136,
      "##뽚": 7137,
      "##쬽": 7138,
      "##웈": 7139,
      "##쉉": 7140,
      "##텰": 7141,
      "##👽": 7142,
      "##🙄": 7143,
      "##맠": 7144,
      "##곙": 7145,
      "##붘": 7146,
      "##밢": 7147,
      "##슺": 7148,
      "##틉": 7149,
      "##퍠": 7150,
      "##쟛": 7151,
      "##즣": 7152,
      "##옻": 7153,
      "##돜": 7154,
      "##쟨": 7155,
      "##휸": 7156,
      "##홓": 7157,
      "##풜": 7158,
      "##™": 7159,
      "##뻇": 7160,
      "##🔑": 7161,
      "##볘": 7162,
      "##쳑": 7163,
      "##졓": 7164,
      "##앛": 7165,
      "##컄": 7166,
      "##몪": 7167,
      "##켕": 7168,
      "##릍": 7169,
      "##졐": 7170,
      "##🍾": 7171,
      "##갆": 7172,
      "##🐏": 7173,
      "##🤐": 7174,
      "##🏮": 7175,
      "##햿": 7176,
      "##뼁": 7177,
      "##🌙": 7178,
      "##💡": 7179,
      "##↘": 7180,
      "##덨": 7181,
      "##횅": 7182,
      "##럇": 7183,
      "##뎡": 7184,
      "##섮": 7185,
      "##😔": 7186,
      "##옯": 7187,
      "##헜": 7188,
      "##슿": 7189,
      "##묏": 7190,
      "##숖": 7191,
      "##햰": 7192,
      "##🎬": 7193,
      "##잢": 7194,
      "##🇬": 7195,
      "##🇮": 7196,
      "##쳥": 7197,
      "##띡": 7198,
      "##꼉": 7199,
      "##읂": 7200,
      "##쑬": 7201,
      "##짲": 7202,
      "##냤": 7203,
      "##갃": 7204,
      "##💌": 7205,
      "##됻": 7206,
      "##륻": 7207,
      "##⬆": 7208,
      "##뻠": 7209,
      "##샾": 7210,
      "##🙅": 7211,
      "##쉓": 7212,
      "##뼘": 7213,
      "##땸": 7214,
      "##엯": 7215,
      "##봡": 7216,
      "##쫭": 7217,
      "##쥿": 7218,
      "##뿝": 7219,
      "##🤡": 7220,
      "##📢": 7221,
      "##빟": 7222,
      "##낗": 7223,
      "##읾": 7224,
      "##뱨": 7225,
      "##🤫": 7226,
      "##뭌": 7227,
      "##뭠": 7228,
      "##🍺": 7229,
      "##녾": 7230,
      "##슛": 7231,
      "##🤠": 7232,
      "##쩠": 7233,
      "##곻": 7234,
      "##휭": 7235,
      "##슭": 7236,
      "##😻": 7237,
      "##🧟": 7238,
      "##쫔": 7239,
      "##빧": 7240,
      "##괁": 7241,
      "##갉": 7242,
      "##줮": 7243,
      "##꼅": 7244,
      "##긷": 7245,
      "##쵤": 7246,
      "##깩": 7247,
      "##💃": 7248,
      "##🌻": 7249,
      "##🦠": 7250,
      "##✈": 7251,
      "##쭌": 7252,
      "##뒸": 7253,
      "##찯": 7254,
      "##홬": 7255,
      "##곯": 7256,
      "##핱": 7257,
      "##쎵": 7258,
      "##🧢": 7259,
      "##촣": 7260,
      "##븽": 7261,
      "##렫": 7262,
      "##꿱": 7263,
      "##멵": 7264,
      "##슉": 7265,
      "##덪": 7266,
      "##붖": 7267,
      "##🦅": 7268,
      "##밠": 7269,
      "##꺌": 7270,
      "##뷁": 7271,
      "##젋": 7272,
      "##눟": 7273,
      "##럈": 7274,
      "##🤟": 7275,
      "##🤘": 7276,
      "##왛": 7277,
      "##즛": 7278,
      "##뢔": 7279,
      "##궃": 7280,
      "##돞": 7281,
      "##🐟": 7282,
      "##쟙": 7283,
      "##✖": 7284,
      "##놯": 7285,
      "##🎌": 7286,
      "##뇀": 7287,
      "##잛": 7288,
      "##냼": 7289,
      "##📛": 7290,
      "##짼": 7291,
      "##👯": 7292,
      "##먁": 7293,
      "##쯉": 7294,
      "##캑": 7295,
      "##😕": 7296,
      "##뫠": 7297,
      "##🥴": 7298,
      "##쥡": 7299,
      "##춯": 7300,
      "##죧": 7301,
      "##붹": 7302,
      "##딫": 7303,
      "##긜": 7304,
      "##됑": 7305,
      "##귱": 7306,
      "##낃": 7307,
      "##싵": 7308,
      "##햛": 7309,
      "##👫": 7310,
      "##듩": 7311,
      "##졀": 7312,
      "##웆": 7313,
      "##🤝": 7314,
      "##쟐": 7315,
      "##🤜": 7316,
      "##웛": 7317,
      "##🌑": 7318,
      "##앀": 7319,
      "##깂": 7320,
      "##왐": 7321,
      "##뗠": 7322,
      "##넚": 7323,
      "##퓸": 7324,
      "##🍂": 7325,
      "##븟": 7326,
      "##쒯": 7327,
      "##겯": 7328,
      "##쨕": 7329,
      "##햣": 7330,
      "##쯨": 7331,
      "##잋": 7332,
      "##뺵": 7333,
      "##랕": 7334,
      "##🦴": 7335,
      "##뇐": 7336,
      "##뗳": 7337,
      "##웝": 7338,
      "##녅": 7339,
      "##🚩": 7340,
      "##꿩": 7341,
      "##첮": 7342,
      "##뼛": 7343,
      "##댯": 7344,
      "##🥊": 7345,
      "##폠": 7346,
      "##뗜": 7347,
      "##옫": 7348,
      "##췁": 7349,
      "##꽅": 7350,
      "##햭": 7351,
      "##푀": 7352,
      "##🍁": 7353,
      "##닻": 7354,
      "##왱": 7355,
      "##릌": 7356,
      "##푝": 7357,
      "##🍼": 7358,
      "##옂": 7359,
      "##➖": 7360,
      "##턀": 7361,
      "##벸": 7362,
      "##늟": 7363,
      "##뽱": 7364,
      "##👋": 7365,
      "##🖐": 7366,
      "##콸": 7367,
      "##젅": 7368,
      "##갴": 7369,
      "##흫": 7370,
      "##쇙": 7371,
      "##🦶": 7372,
      "##🦆": 7373,
      "##튠": 7374,
      "##듡": 7375,
      "##🍃": 7376,
      "##옽": 7377,
      "##👀": 7378,
      "##💵": 7379,
      "##닊": 7380,
      "##릂": 7381,
      "##좽": 7382,
      "##쥽": 7383,
      "##쎘": 7384,
      "##챀": 7385,
      "##몼": 7386,
      "##괏": 7387,
      "##씉": 7388,
      "##웑": 7389,
      "##옪": 7390,
      "##첝": 7391,
      "##폑": 7392,
      "##💨": 7393,
      "##홤": 7394,
      "##걉": 7395,
      "##쉙": 7396,
      "##궍": 7397,
      "##닪": 7398,
      "##👇": 7399,
      "##뜹": 7400,
      "##캘": 7401,
      "##껸": 7402,
      "##뀡": 7403,
      "##🦺": 7404,
      "##괬": 7405,
      "##퉥": 7406,
      "##끛": 7407,
      "##탯": 7408,
      "##📌": 7409,
      "##💄": 7410,
      "##🙃": 7411,
      "##땽": 7412,
      "##빯": 7413,
      "##휑": 7414,
      "##꿴": 7415,
      "##퓽": 7416,
      "##먆": 7417,
      "##뵨": 7418,
      "##툇": 7419,
      "##굮": 7420,
      "##뢐": 7421,
      "##쩄": 7422,
      "##옅": 7423,
      "##🍏": 7424,
      "##꺙": 7425,
      "##👨": 7426,
      "##혠": 7427,
      "##🏈": 7428,
      "##땋": 7429,
      "##ㄻ": 7430,
      "##쏨": 7431,
      "##뢱": 7432,
      "##쐨": 7433,
      "##쒰": 7434,
      "##뎜": 7435,
      "##탼": 7436,
      "##뮴": 7437,
      "##쇽": 7438,
      "##벆": 7439,
      "##⏪": 7440,
      "##벹": 7441,
      "##믾": 7442,
      "##넫": 7443,
      "##뜁": 7444,
      "##꼮": 7445,
      "##띈": 7446,
      "##퐌": 7447,
      "##🦊": 7448,
      "##묹": 7449,
      "##졉": 7450,
      "##썁": 7451,
      "##낂": 7452,
      "##휙": 7453,
      "##🧐": 7454,
      "##깋": 7455,
      "##갵": 7456,
      "##🔷": 7457,
      "##씃": 7458,
      "##🌏": 7459,
      "##✅": 7460,
      "##혤": 7461,
      "##흴": 7462,
      "##앆": 7463,
      "##뙇": 7464,
      "##롶": 7465,
      "##☑": 7466,
      "##좦": 7467,
      "##맻": 7468,
      "##🍆": 7469,
      "##🔇": 7470,
      "##🇱": 7471,
      "##졵": 7472,
      "##븹": 7473,
      "##꾁": 7474,
      "##🎁": 7475,
      "##🔧": 7476,
      "##횬": 7477,
      "##⛄": 7478,
      "##닣": 7479,
      "##쨓": 7480,
      "##🍒": 7481,
      "##🦝": 7482,
      "##껨": 7483,
      "##쐴": 7484,
      "##짏": 7485,
      "##🤴": 7486,
      "##싈": 7487,
      "##덛": 7488,
      "##쳘": 7489,
      "##숰": 7490,
      "##뒛": 7491,
      "##캪": 7492,
      "##쪔": 7493,
      "##롕": 7494,
      "##짯": 7495,
      "##롼": 7496,
      "##🌾": 7497,
      "##컽": 7498,
      "##뭊": 7499,
      "##봗": 7500,
      "##랂": 7501,
      "##칑": 7502,
      "##찣": 7503,
      "##듪": 7504,
      "##🍬": 7505,
      "##줩": 7506,
      "##팓": 7507,
      "##욀": 7508,
      "##쌥": 7509,
      "##듴": 7510,
      "##씯": 7511,
      "##쯫": 7512,
      "##↗": 7513,
      "##굷": 7514,
      "##뢴": 7515,
      "##숮": 7516,
      "##귿": 7517,
      "##큉": 7518,
      "##🩸": 7519,
      "##췅": 7520,
      "##🗿": 7521,
      "##⚠": 7522,
      "##믇": 7523,
      "##헿": 7524,
      "##🐳": 7525,
      "##젏": 7526,
      "##봌": 7527,
      "##쎡": 7528,
      "##🍔": 7529,
      "##🎧": 7530,
      "##닯": 7531,
      "##🦉": 7532,
      "##긎": 7533,
      "##꽹": 7534,
      "##뺕": 7535,
      "##🍇": 7536,
      "##굯": 7537,
      "##릫": 7538,
      "##젲": 7539,
      "##닚": 7540,
      "##윸": 7541,
      "##뱽": 7542,
      "##💁": 7543,
      "##🥀": 7544,
      "##떢": 7545,
      "##궨": 7546,
      "##옃": 7547,
      "##↔": 7548,
      "##맔": 7549,
      "##얃": 7550,
      "##햋": 7551,
      "##볏": 7552,
      "##뗑": 7553,
      "##꿂": 7554,
      "##눞": 7555,
      "##👪": 7556,
      "##👬": 7557,
      "##👭": 7558,
      "##💏": 7559,
      "##💑": 7560,
      "##퉛": 7561,
      "##켑": 7562,
      "##칰": 7563,
      "##딍": 7564,
      "##좊": 7565,
      "##읿": 7566,
      "##🛎": 7567,
      "##읇": 7568,
      "##🍰": 7569,
      "##🇭": 7570,
      "##밪": 7571,
      "##괙": 7572,
      "##뮥": 7573,
      "##짪": 7574,
      "##뛧": 7575,
      "##횝": 7576,
      "##앢": 7577,
      "##ㄳ": 7578,
      "##씳": 7579,
      "##⬅": 7580,
      "##솰": 7581,
      "##끚": 7582,
      "##폅": 7583,
      "##맢": 7584,
      "##뵁": 7585,
      "##뺜": 7586,
      "##둗": 7587,
      "##💒": 7588,
      "##냦": 7589,
      "##땬": 7590,
      "##엷": 7591,
      "##꽊": 7592,
      "##숳": 7593,
      "##꼻": 7594,
      "##싺": 7595,
      "##쇳": 7596,
      "##푯": 7597,
      "##쾍": 7598,
      "##잧": 7599,
      "##썡": 7600,
      "##🐻": 7601,
      "##짞": 7602,
      "##칞": 7603,
      "##🏴": 7604,
      "##댗": 7605,
      "##쩟": 7606,
      "##줱": 7607,
      "##숏": 7608,
      "##홯": 7609,
      "##🤓": 7610,
      "##뜡": 7611,
      "##큨": 7612,
      "##벓": 7613,
      "##👗": 7614,
      "##🌀": 7615,
      "##벍": 7616,
      "##몋": 7617,
      "##좄": 7618,
      "##뚯": 7619,
      "##걌": 7620,
      "##🤚": 7621,
      "##뵀": 7622,
      "##빝": 7623,
      "##갏": 7624,
      "##븁": 7625,
      "##햝": 7626,
      "##촵": 7627,
      "##좢": 7628,
      "##ㅀ": 7629,
      "##🎀": 7630,
      "##죰": 7631,
      "##낛": 7632,
      "##맊": 7633,
      "##졘": 7634,
      "##껶": 7635,
      "##🌱": 7636,
      "##🌎": 7637,
      "##얫": 7638,
      "##흨": 7639,
      "##팦": 7640,
      "##젗": 7641,
      "##🍭": 7642,
      "##늡": 7643,
      "##씪": 7644,
      "##쌧": 7645,
      "##넢": 7646,
      "##볾": 7647,
      "##👶": 7648,
      "##푱": 7649,
      "##쏩": 7650,
      "##🧠": 7651,
      "##덋": 7652,
      "##👂": 7653,
      "##똣": 7654,
      "##뺒": 7655,
      "##쩢": 7656,
      "##븬": 7657,
      "##멐": 7658,
      "##🌄": 7659,
      "##씾": 7660,
      "##듳": 7661,
      "##춋": 7662,
      "##띱": 7663,
      "##핲": 7664,
      "##웄": 7665,
      "##낞": 7666,
      "##폥": 7667,
      "##뭑": 7668,
      "##쮹": 7669,
      "##🎂": 7670,
      "##➰": 7671,
      "##먽": 7672,
      "##튱": 7673,
      "##륀": 7674,
      "##🎙": 7675,
      "##쎤": 7676,
      "##픗": 7677,
      "##욮": 7678,
      "##핶": 7679,
      "##퇼": 7680,
      "##궅": 7681,
      "##껔": 7682,
      "##봑": 7683,
      "##녂": 7684,
      "##괵": 7685,
      "##😽": 7686,
      "##꾕": 7687,
      "##🗣": 7688,
      "##휨": 7689,
      "##😯": 7690,
      "##픵": 7691,
      "##갣": 7692,
      "##읨": 7693,
      "##섷": 7694,
      "##뭰": 7695,
      "##🎷": 7696,
      "##눨": 7697,
      "##퀙": 7698,
      "##밮": 7699,
      "##븩": 7700,
      "##뭫": 7701,
      "##픠": 7702,
      "##👵": 7703,
      "##줃": 7704,
      "##쩦": 7705,
      "##뒬": 7706,
      "##쩧": 7707,
      "##쎃": 7708,
      "##🍚": 7709,
      "##꿃": 7710,
      "##⛳": 7711,
      "##뱝": 7712,
      "##몡": 7713,
      "##녿": 7714,
      "##췼": 7715,
      "##쨜": 7716,
      "##얂": 7717,
      "##얨": 7718,
      "##뮝": 7719,
      "##텻": 7720,
      "##샞": 7721,
      "##륍": 7722,
      "##쐽": 7723,
      "##껫": 7724,
      "##햟": 7725,
      "##🍳": 7726,
      "##넒": 7727,
      "##넖": 7728,
      "##뗗": 7729,
      "##펍": 7730,
      "##흌": 7731,
      "##붃": 7732,
      "##쳠": 7733,
      "##🔲": 7734,
      "##떫": 7735,
      "##🤰": 7736,
      "##냡": 7737,
      "##🔉": 7738,
      "##👆": 7739,
      "##줸": 7740,
      "##챕": 7741,
      "##쌜": 7742,
      "##싦": 7743,
      "##🍖": 7744,
      "##읙": 7745,
      "##꿏": 7746,
      "##🕺": 7747,
      "##☘": 7748,
      "##늼": 7749,
      "##귐": 7750,
      "##☣": 7751,
      "##틅": 7752,
      "##튐": 7753,
      "##🚅": 7754,
      "##풔": 7755,
      "##뚀": 7756,
      "##🤞": 7757,
      "##❔": 7758,
      "##뷍": 7759,
      "##낲": 7760,
      "##붚": 7761,
      "##걲": 7762,
      "##🔅": 7763,
      "##🔆": 7764,
      "##💔": 7765,
      "##🐸": 7766,
      "##뚷": 7767,
      "##🏅": 7768,
      "##몴": 7769,
      "##칡": 7770,
      "##븉": 7771,
      "##🌵": 7772,
      "##🥥": 7773,
      "##🍌": 7774,
      "##앲": 7775,
      "##뇰": 7776,
      "##퐝": 7777,
      "##핢": 7778,
      "##쪗": 7779,
      "##👾": 7780,
      "##샕": 7781,
      "##묷": 7782,
      "##폽": 7783,
      "##🐜": 7784,
      "##🍴": 7785,
      "##샼": 7786,
      "##걵": 7787,
      "##🌊": 7788,
      "##깹": 7789,
      "##🌍": 7790,
      "##슄": 7791,
      "##왴": 7792,
      "##⚔": 7793,
      "##⚰": 7794,
      "##똠": 7795,
      "##둇": 7796,
      "##욹": 7797,
      "##🎹": 7798,
      "##휄": 7799,
      "##딝": 7800,
      "##훳": 7801,
      "##👙": 7802,
      "##😟": 7803,
      "##됮": 7804,
      "##쌂": 7805,
      "##돝": 7806,
      "##랓": 7807,
      "##🗽": 7808,
      "##뮛": 7809,
      "##옭": 7810,
      "##캌": 7811,
      "##뱜": 7812,
      "##🐹": 7813,
      "##튓": 7814,
      "##짋": 7815,
      "##쏵": 7816,
      "##틐": 7817,
      "##💎": 7818,
      "##샸": 7819,
      "##퉵": 7820,
      "##☎": 7821,
      "##덷": 7822,
      "##훑": 7823,
      "##🇦": 7824,
      "##힁": 7825,
      "##횄": 7826,
      "##빬": 7827,
      "##읰": 7828,
      "##쫃": 7829,
      "##쎾": 7830,
      "##⚖": 7831,
      "##뮙": 7832,
      "##촴": 7833,
      "##묫": 7834,
      "##왹": 7835,
      "##춣": 7836,
      "##뷀": 7837,
      "##놬": 7838,
      "##떯": 7839,
      "##훵": 7840,
      "##🔺": 7841,
      "##짦": 7842,
      "##컈": 7843,
      "##쁑": 7844,
      "##볜": 7845,
      "##섿": 7846,
      "##밓": 7847,
      "##긘": 7848,
      "##꽄": 7849,
      "##🌰": 7850,
      "##섡": 7851,
      "##🌩": 7852,
      "##🌧": 7853,
      "##👘": 7854,
      "##🚑": 7855,
      "##솩": 7856,
      "##쭥": 7857,
      "##껙": 7858,
      "##벛": 7859,
      "##🔮": 7860,
      "##댛": 7861,
      "##📺": 7862,
      "##넗": 7863,
      "##뺭": 7864,
      "##붱": 7865,
      "##쨎": 7866,
      "##뉍": 7867,
      "##🥕": 7868,
      "##섄": 7869,
      "##껵": 7870,
      "##얠": 7871,
      "##앐": 7872,
      "##쮠": 7873,
      "##눍": 7874,
      "##낧": 7875,
      "##👮": 7876,
      "##뿕": 7877,
      "##쫐": 7878,
      "##쌴": 7879,
      "##낝": 7880,
      "##먖": 7881,
      "##졻": 7882,
      "##🎭": 7883,
      "##뻉": 7884,
      "##🐃": 7885,
      "##퇀": 7886,
      "##쟞": 7887,
      "##몣": 7888,
      "##젉": 7889,
      "##즂": 7890,
      "##쓒": 7891,
      "##먾": 7892,
      "##욺": 7893,
      "##흽": 7894,
      "##🍋": 7895,
      "##탙": 7896,
      "##퍀": 7897,
      "##흄": 7898,
      "##쏳": 7899,
      "##엃": 7900,
      "##륄": 7901,
      "##옰": 7902,
      "##맽": 7903,
      "##👲": 7904,
      "##죨": 7905,
      "##틁": 7906,
      "##뻈": 7907,
      "##졲": 7908,
      "##첯": 7909,
      "##묽": 7910,
      "##춈": 7911,
      "##줯": 7912,
      "##웸": 7913,
      "##튑": 7914,
      "##뱸": 7915,
      "##뻴": 7916,
      "##쮝": 7917,
      "##죅": 7918,
      "##줓": 7919,
      "##🌽": 7920,
      "##똗": 7921,
      "##걘": 7922,
      "##📯": 7923,
      "##얾": 7924,
      "##졳": 7925,
      "##얊": 7926,
      "##됸": 7927,
      "##🥒": 7928,
      "##봟": 7929,
      "##쀍": 7930,
      "##땰": 7931,
      "##쯜": 7932,
      "##윷": 7933,
      "##뻩": 7934,
      "##🐼": 7935,
      "##잚": 7936,
      "##휏": 7937,
      "##⚫": 7938,
      "##💧": 7939,
      "##젎": 7940,
      "##똟": 7941,
      "##↙": 7942,
      "##츅": 7943,
      "##🏓": 7944,
      "##넑": 7945,
      "##뵵": 7946,
      "##웂": 7947,
      "##🏇": 7948,
      "##붋": 7949,
      "##꾐": 7950,
      "##🥖": 7951,
      "##쫴": 7952,
      "##®": 7953,
      "##🔻": 7954,
      "##좂": 7955,
      "##🦼": 7956,
      "##퀭": 7957,
      "##먗": 7958,
      "##🕖": 7959,
      "##풓": 7960,
      "##쀄": 7961,
      "##쪚": 7962,
      "##쬠": 7963,
      "##홨": 7964,
      "##으로": 7965,
      "##하는": 7966,
      "##들이": 7967,
      "##하고": 7968,
      "##니다": 7969,
      "ㅋㅋ": 7970,
      "##에서": 7971,
      "##는데": 7972,
      "국민": 7973,
      "##다고": 7974,
      "아니": 7975,
      "##이다": 7976,
      "##들은": 7977,
      "사람": 7978,
      "##라고": 7979,
      "문재": 7980,
      "나라": 7981,
      "##는거": 7982,
      "우리": 7983,
      "일본": 7984,
      "##으면": 7985,
      "##하면": 7986,
      "##해서": 7987,
      "이런": 7988,
      "생각": 7989,
      "중국": 7990,
      "문재인": 7991,
      "진짜": 7992,
      "##이라": 7993,
      "##통령": 7994,
      "##다는": 7995,
      "하는": 7996,
      "한국": 7997,
      "##하지": 7998,
      "##까지": 7999,
      "##나라": 8000,
      "지금": 8001,
      "##니까": 8002,
      "##세요": 8003,
      "##렇게": 8004,
      "##리고": 8005,
      "##이나": 8006,
      "##하게": 8007,
      "##한다": 8008,
      "조국": 8009,
      "##대로": 8010,
      "##ㅋㅋ": 8011,
      "대통령": 8012,
      "##하다": 8013,
      "대한": 8014,
      "##지만": 8015,
      "##인데": 8016,
      "민주": 8017,
      "북한": 8018,
      "그냥": 8019,
      "##에게": 8020,
      "##해야": 8021,
      "ㅋㅋㅋ": 8022,
      "##해라": 8023,
      "정치": 8024,
      "##네요": 8025,
      "##민국": 8026,
      "##한테": 8027,
      "정부": 8028,
      "##레기": 8029,
      "##구나": 8030,
      "##면서": 8031,
      "있는": 8032,
      "인간": 8033,
      "##이고": 8034,
      "대한민국": 8035,
      "##같은": 8036,
      "이제": 8037,
      "문제": 8038,
      "하고": 8039,
      "##00": 8040,
      "그래": 8041,
      "##부터": 8042,
      "##보다": 8043,
      "정신": 8044,
      "##라도": 8045,
      "##습니다": 8046,
      "##는게": 8047,
      "아닌": 8048,
      "모르": 8049,
      "정말": 8050,
      "##들어": 8051,
      "##들아": 8052,
      "그런": 8053,
      "##사람": 8054,
      "##주의": 8055,
      "검찰": 8056,
      "미국": 8057,
      "무슨": 8058,
      "##려고": 8059,
      "그러": 8060,
      "민주당": 8061,
      "##야지": 8062,
      "##합니다": 8063,
      "댓글": 8064,
      "경제": 8065,
      "같은": 8066,
      "##이지": 8067,
      "정권": 8068,
      "너무": 8069,
      "##적으로": 8070,
      "##이냐": 8071,
      "##소리": 8072,
      "지지": 8073,
      "##입니다": 8074,
      "##으니": 8075,
      "##OO": 8076,
      "##겠다": 8077,
      "##인가": 8078,
      "기사": 8079,
      "하나": 8080,
      "##어서": 8081,
      "문재앙": 8082,
      "저런": 8083,
      "##처럼": 8084,
      "자기": 8085,
      "##리는": 8086,
      "세금": 8087,
      "##한당": 8088,
      "##들의": 8089,
      "우리나라": 8090,
      "##것도": 8091,
      "##이가": 8092,
      "아무": 8093,
      "하지": 8094,
      "##하네": 8095,
      "국가": 8096,
      "##적인": 8097,
      "이게": 8098,
      "##들을": 8099,
      "##는지": 8100,
      "좌파": 8101,
      "##자가": 8102,
      "자한당": 8103,
      "##갱이": 8104,
      "얼마": 8105,
      "없는": 8106,
      "##지고": 8107,
      "그리고": 8108,
      "쓰레기": 8109,
      "##이네": 8110,
      "##겠지": 8111,
      "##들도": 8112,
      "##이라고": 8113,
      "##라는": 8114,
      "##아서": 8115,
      "어떻": 8116,
      "그렇게": 8117,
      "어디": 8118,
      "##문에": 8119,
      "있다": 8120,
      "##말고": 8121,
      "들어": 8122,
      "제발": 8123,
      "아직": 8124,
      "안되": 8125,
      "당신": 8126,
      "잘못": 8127,
      "OOO": 8128,
      "한다": 8129,
      "##가리": 8130,
      "없다": 8131,
      "##잖아": 8132,
      "자유": 8133,
      "##천지": 8134,
      "누가": 8135,
      "어떻게": 8136,
      "다른": 8137,
      "##하냐": 8138,
      "##인이": 8139,
      "##지도": 8140,
      "아니라": 8141,
      "##정부": 8142,
      "##이야": 8143,
      "##정권": 8144,
      "조선": 8145,
      "나오": 8146,
      "빨갱이": 8147,
      "##인지": 8148,
      "##다가": 8149,
      "##해도": 8150,
      "이렇게": 8151,
      "##놓고": 8152,
      "언론": 8153,
      "##근혜": 8154,
      "국회": 8155,
      "그럼": 8156,
      "##로나": 8157,
      "##하나": 8158,
      "많이": 8159,
      "사회": 8160,
      "##의원": 8161,
      "##없는": 8162,
      "##시다": 8163,
      "##어야": 8164,
      "##한거": 8165,
      "##하는거": 8166,
      "그만": 8167,
      "신천지": 8168,
      "##가는": 8169,
      "##자들": 8170,
      "##더니": 8171,
      "##스크": 8172,
      "##시키": 8173,
      "##있는": 8174,
      "이번": 8175,
      "이상": 8176,
      "소리": 8177,
      "얼마나": 8178,
      "친일": 8179,
      "ㅉㅉ": 8180,
      "##거리": 8181,
      "##에는": 8182,
      "##돼지": 8183,
      "코로나": 8184,
      "##이는": 8185,
      "##어요": 8186,
      "국민들": 8187,
      "공산": 8188,
      "##기는": 8189,
      "##보고": 8190,
      "##국민": 8191,
      "거짓": 8192,
      "사람이": 8193,
      "##어도": 8194,
      "##지는": 8195,
      "살아": 8196,
      "보수": 8197,
      "보고": 8198,
      "박근혜": 8199,
      "수준": 8200,
      "수사": 8201,
      "##는다": 8202,
      "##하는데": 8203,
      "##을까": 8204,
      "마스크": 8205,
      "##가서": 8206,
      "아니고": 8207,
      "제대로": 8208,
      "정의": 8209,
      "##된다": 8210,
      "##봐라": 8211,
      "##정은": 8212,
      "선동": 8213,
      "나라가": 8214,
      "해야": 8215,
      "##와대": 8216,
      "##었다": 8217,
      "##자는": 8218,
      "세상": 8219,
      "사실": 8220,
      "피해": 8221,
      "##에도": 8222,
      "필요": 8223,
      "ㅎㅎ": 8224,
      "여기": 8225,
      "이해": 8226,
      "내가": 8227,
      "##주고": 8228,
      "모든": 8229,
      "이미": 8230,
      "근데": 8231,
      "##는건": 8232,
      "만들": 8233,
      "##정도": 8234,
      "돌아": 8235,
      "##이면": 8236,
      "##구만": 8237,
      "선거": 8238,
      "니가": 8239,
      "10": 8240,
      "##겠네": 8241,
      "아이": 8242,
      "##나요": 8243,
      "니들": 8244,
      "다시": 8245,
      "말고": 8246,
      "청와대": 8247,
      "모두": 8248,
      "계속": 8249,
      "하면": 8250,
      "만들어": 8251,
      "탄핵": 8252,
      "아직도": 8253,
      "조사": 8254,
      "20": 8255,
      "누구": 8256,
      "미친": 8257,
      "##했다": 8258,
      "이건": 8259,
      "아닌가": 8260,
      "아베": 8261,
      "좋아": 8262,
      "##마라": 8263,
      "##새끼": 8264,
      "조작": 8265,
      "##리가": 8266,
      "개돼지": 8267,
      "##하기": 8268,
      "##가지": 8269,
      "서울": 8270,
      "대깨": 8271,
      "좌빨": 8272,
      "##다니": 8273,
      "좋은": 8274,
      "여자": 8275,
      "##이라도": 8276,
      "##이랑": 8277,
      "보면": 8278,
      "아주": 8279,
      "##러운": 8280,
      "##없이": 8281,
      "해라": 8282,
      "사람들": 8283,
      "이유": 8284,
      "말이": 8285,
      "##아야": 8286,
      "##하라": 8287,
      "한심": 8288,
      "언제": 8289,
      "대깨문": 8290,
      "그래서": 8291,
      "##시켜": 8292,
      "##하자": 8293,
      "역시": 8294,
      "한번": 8295,
      "##하니": 8296,
      "알고": 8297,
      "많은": 8298,
      "##같이": 8299,
      "##아니": 8300,
      "그게": 8301,
      "##하시": 8302,
      "대구": 8303,
      "##하면서": 8304,
      "##먹고": 8305,
      "책임": 8306,
      "당연": 8307,
      "##거다": 8308,
      "무능": 8309,
      "##어나": 8310,
      "##보면": 8311,
      "새끼": 8312,
      "##기를": 8313,
      "자식": 8314,
      "국민이": 8315,
      "범죄": 8316,
      "재앙": 8317,
      "부모": 8318,
      "##기에": 8319,
      "##없다": 8320,
      "##텐데": 8321,
      "바로": 8322,
      "##던데": 8323,
      "##한다고": 8324,
      "##것이": 8325,
      "경찰": 8326,
      "100": 8327,
      "그렇": 8328,
      "##어라": 8329,
      "##만원": 8330,
      "뭐가": 8331,
      "총선": 8332,
      "##인들": 8333,
      "##하는게": 8334,
      "이러": 8335,
      "##이니": 8336,
      "니들이": 8337,
      "김정은": 8338,
      "##시민": 8339,
      "결국": 8340,
      "가짜": 8341,
      "##더라": 8342,
      "절대": 8343,
      "기업": 8344,
      "국회의원": 8345,
      "국민들이": 8346,
      "가족": 8347,
      "토착": 8348,
      "##주는": 8349,
      "황교": 8350,
      "##치고": 8351,
      "##당이": 8352,
      "국민을": 8353,
      "없어": 8354,
      "위해": 8355,
      "##수가": 8356,
      "완전": 8357,
      "빨리": 8358,
      "##주세요": 8359,
      "때문에": 8360,
      "##성이": 8361,
      "이거": 8362,
      "##지않": 8363,
      "세계": 8364,
      "반대": 8365,
      "##기업": 8366,
      "##와서": 8367,
      "##중에": 8368,
      "자신": 8369,
      "나라를": 8370,
      "아니다": 8371,
      "전라도": 8372,
      "받아": 8373,
      "어떤": 8374,
      "##는거지": 8375,
      "##겠냐": 8376,
      "상황": 8377,
      "적폐": 8378,
      "##것들": 8379,
      "요즘": 8380,
      "있는데": 8381,
      "##이란": 8382,
      "##기가": 8383,
      "정도": 8384,
      "독재": 8385,
      "같이": 8386,
      "인정": 8387,
      "기자": 8388,
      "##거지": 8389,
      "##사가": 8390,
      "세월": 8391,
      "여론": 8392,
      "##대체": 8393,
      "##고있": 8394,
      "사기": 8395,
      "이용": 8396,
      "##지말고": 8397,
      "너희": 8398,
      "##되는": 8399,
      "떨어": 8400,
      "##일보": 8401,
      "##려라": 8402,
      "##동안": 8403,
      "장관": 8404,
      "도대체": 8405,
      "권력": 8406,
      "더불": 8407,
      "##대통령": 8408,
      "##전에": 8409,
      "##무원": 8410,
      "##거나": 8411,
      "##이라는": 8412,
      "보내": 8413,
      "##시고": 8414,
      "없고": 8415,
      "##치는": 8416,
      "거짓말": 8417,
      "##ㅋㅋㅋ": 8418,
      "##체가": 8419,
      "지들": 8420,
      "##사는": 8421,
      "합니다": 8422,
      "##놈들": 8423,
      "다음": 8424,
      "달창": 8425,
      "##스럽": 8426,
      "전부": 8427,
      "##이상": 8428,
      "있었": 8429,
      "구속": 8430,
      "##때문에": 8431,
      "##시간": 8432,
      "##왜구": 8433,
      "사람들이": 8434,
      "시작": 8435,
      "먼저": 8436,
      "아님": 8437,
      "##아라": 8438,
      "세월호": 8439,
      "##지가": 8440,
      "마음": 8441,
      "##건데": 8442,
      "##다면": 8443,
      "##조건": 8444,
      "아니면": 8445,
      "그래도": 8446,
      "입국": 8447,
      "보여": 8448,
      "##운동": 8449,
      "어느": 8450,
      "남자": 8451,
      "##뉴스": 8452,
      "국민의": 8453,
      "현실": 8454,
      "##하여": 8455,
      "안보": 8456,
      "##자리": 8457,
      "##경원": 8458,
      "시키": 8459,
      "이젠": 8460,
      "##장이": 8461,
      "처벌": 8462,
      "##장관": 8463,
      "나경원": 8464,
      "걱정": 8465,
      "정상": 8466,
      "##라이": 8467,
      "얘기": 8468,
      "공무원": 8469,
      "어쩌": 8470,
      "무조건": 8471,
      "사고": 8472,
      "뉴스": 8473,
      "사과": 8474,
      "##것이다": 8475,
      "30": 8476,
      "##가고": 8477,
      "##려는": 8478,
      "그걸": 8479,
      "어찌": 8480,
      "##하며": 8481,
      "##하세요": 8482,
      "대단": 8483,
      "그리": 8484,
      "시간": 8485,
      "황교안": 8486,
      "본인": 8487,
      "얼굴": 8488,
      "##머니": 8489,
      "응원": 8490,
      "토착왜구": 8491,
      "머리": 8492,
      "지원": 8493,
      "지역": 8494,
      "문죄": 8495,
      "외교": 8496,
      "##당은": 8497,
      "하는데": 8498,
      "##되면": 8499,
      "기레기": 8500,
      "외국": 8501,
      "못한": 8502,
      "##밖에": 8503,
      "##들에게": 8504,
      "##해야지": 8505,
      "모르는": 8506,
      "##리지": 8507,
      "행동": 8508,
      "나도": 8509,
      "앞으로": 8510,
      "되는": 8511,
      "엄청": 8512,
      "##개혁": 8513,
      "다니": 8514,
      "##건가": 8515,
      "##수있": 8516,
      "##기도": 8517,
      "##했는데": 8518,
      "있을": 8519,
      "##국가": 8520,
      "해도": 8521,
      "##스로": 8522,
      "정책": 8523,
      "내려": 8524,
      "하루": 8525,
      "니네": 8526,
      "삼성": 8527,
      "힘들": 8528,
      "아무리": 8529,
      "역사": 8530,
      "윤석": 8531,
      "##리면": 8532,
      "우리가": 8533,
      "##보니": 8534,
      "지랄": 8535,
      "##한데": 8536,
      "촛불": 8537,
      "사이": 8538,
      "중요": 8539,
      "##럼프": 8540,
      "하는거": 8541,
      "검사": 8542,
      "아니냐": 8543,
      "것이": 8544,
      "가능": 8545,
      "##민주": 8546,
      "가장": 8547,
      "대통령이": 8548,
      "##려면": 8549,
      "##아먹": 8550,
      "대가리": 8551,
      "더불어": 8552,
      "##조사": 8553,
      "시민": 8554,
      "##생각": 8555,
      "것이다": 8556,
      "사건": 8557,
      "먹고": 8558,
      "나쁜": 8559,
      "집단": 8560,
      "저렇게": 8561,
      "법무": 8562,
      "전쟁": 8563,
      "오늘": 8564,
      "트럼프": 8565,
      "##라지": 8566,
      "난리": 8567,
      "개인": 8568,
      "가지고": 8569,
      "##기고": 8570,
      "공수": 8571,
      "일베": 8572,
      "미래": 8573,
      "중국인": 8574,
      "##것들이": 8575,
      "##력이": 8576,
      "문재인이": 8577,
      "##대는": 8578,
      "진정": 8579,
      "##건지": 8580,
      "지지율": 8581,
      "##하겠": 8582,
      "50": 8583,
      "일반": 8584,
      "##남불": 8585,
      "##려서": 8586,
      "##하던": 8587,
      "##았다": 8588,
      "증거": 8589,
      "##로남불": 8590,
      "친일파": 8591,
      "##대가": 8592,
      "##되고": 8593,
      "해결": 8594,
      "이나라": 8595,
      "##도록": 8596,
      "공수처": 8597,
      "해서": 8598,
      "방송": 8599,
      "##었는데": 8600,
      "18": 8601,
      "##받고": 8602,
      "무식": 8603,
      "같다": 8604,
      "##대가리": 8605,
      "가서": 8606,
      "##끼리": 8607,
      "서민": 8608,
      "##드는": 8609,
      "##대표": 8610,
      "##거야": 8611,
      "부끄": 8612,
      "##들만": 8613,
      "교육": 8614,
      "##나서": 8615,
      "나는": 8616,
      "일본이": 8617,
      "##한게": 8618,
      "최고": 8619,
      "불법": 8620,
      "##들고": 8621,
      "##아요": 8622,
      "##르고": 8623,
      "진보": 8624,
      "이야": 8625,
      "개혁": 8626,
      "양심": 8627,
      "정부가": 8628,
      "없이": 8629,
      "##라서": 8630,
      "공개": 8631,
      "##인간": 8632,
      "더러운": 8633,
      "만든": 8634,
      "이래": 8635,
      "팩트": 8636,
      "반일": 8637,
      "관심": 8638,
      "매국": 8639,
      "##간다": 8640,
      "된다": 8641,
      "##수도": 8642,
      "##는거야": 8643,
      "알바": 8644,
      "##드시": 8645,
      "##내고": 8646,
      "##난다": 8647,
      "##해주": 8648,
      "##기사": 8649,
      "애들": 8650,
      "불쌍": 8651,
      "##에서는": 8652,
      "부정": 8653,
      "진실": 8654,
      "못하는": 8655,
      "##자들이": 8656,
      "개소리": 8657,
      "##자를": 8658,
      "##나오": 8659,
      "정신차": 8660,
      "나온": 8661,
      "##리를": 8662,
      "##이버": 8663,
      "##세먼": 8664,
      "##을때": 8665,
      "##대한": 8666,
      "있네": 8667,
      "##심히": 8668,
      "가만": 8669,
      "##라면": 8670,
      "조국이": 8671,
      "같은데": 8672,
      "사는": 8673,
      "그런데": 8674,
      "있나": 8675,
      "##조작": 8676,
      "유시민": 8677,
      "##일이": 8678,
      "##봐야": 8679,
      "맞는": 8680,
      "##경제": 8681,
      "있으면": 8682,
      "스스로": 8683,
      "우한": 8684,
      "넘어": 8685,
      "살인": 8686,
      "##마다": 8687,
      "멍청": 8688,
      "##이러": 8689,
      "확실": 8690,
      "해외": 8691,
      "##원이": 8692,
      "##명이": 8693,
      "여성": 8694,
      "지켜": 8695,
      "틀딱": 8696,
      "##은이": 8697,
      "인권": 8698,
      "제일": 8699,
      "전세": 8700,
      "투표": 8701,
      "거지": 8702,
      "돼지": 8703,
      "##프로": 8704,
      "##할때": 8705,
      "평화": 8706,
      "##바리": 8707,
      "##지마라": 8708,
      "##것은": 8709,
      "어디서": 8710,
      "있고": 8711,
      "말을": 8712,
      "결과": 8713,
      "내로남불": 8714,
      "공부": 8715,
      "안되는": 8716,
      "위한": 8717,
      "##란다": 8718,
      "무시": 8719,
      "한국당": 8720,
      "솔직": 8721,
      "조용": 8722,
      "바보": 8723,
      "뻔뻔": 8724,
      "열심히": 8725,
      "##지면": 8726,
      "대학": 8727,
      "##식이": 8728,
      "##이팅": 8729,
      "사람은": 8730,
      "당장": 8731,
      "문제가": 8732,
      "노무": 8733,
      "국민들은": 8734,
      "##있다": 8735,
      "##명박": 8736,
      "가짜뉴스": 8737,
      "따라": 8738,
      "##문제": 8739,
      "문빠": 8740,
      "여러": 8741,
      "##보자": 8742,
      "않는": 8743,
      "##마디": 8744,
      "이름": 8745,
      "인생": 8746,
      "밝혀": 8747,
      "시켜": 8748,
      "있어": 8749,
      "##것을": 8750,
      "지나": 8751,
      "밖에": 8752,
      "##동산": 8753,
      "미세먼": 8754,
      "##려야": 8755,
      "그때": 8756,
      "종교": 8757,
      "##차피": 8758,
      "윤석열": 8759,
      "없애": 8760,
      "불매": 8761,
      "네이버": 8762,
      "##했다고": 8763,
      "##으면서": 8764,
      "##인은": 8765,
      "다들": 8766,
      "##던가": 8767,
      "민주주의": 8768,
      "너네": 8769,
      "##보네": 8770,
      "학교": 8771,
      "##금지": 8772,
      "##한국": 8773,
      "의료": 8774,
      "간첩": 8775,
      "안타": 8776,
      "사형": 8777,
      "이명박": 8778,
      "어차피": 8779,
      "짱깨": 8780,
      "##부분": 8781,
      "잡아": 8782,
      "##는거다": 8783,
      "반드시": 8784,
      "않고": 8785,
      "못하고": 8786,
      "월급": 8787,
      "거기": 8788,
      "##국에": 8789,
      "##진다": 8790,
      "국내": 8791,
      "대표": 8792,
      "처음": 8793,
      "##들과": 8794,
      "##스트": 8795,
      "##워서": 8796,
      "노무현": 8797,
      "무서": 8798,
      "교회": 8799,
      "##겠지만": 8800,
      "##만큼": 8801,
      "검찰개혁": 8802,
      "나이": 8803,
      "반성": 8804,
      "##적이": 8805,
      "정신병": 8806,
      "부동산": 8807,
      "나가": 8808,
      "것도": 8809,
      "임명": 8810,
      "대체": 8811,
      "##정신": 8812,
      "##린다": 8813,
      "과거": 8814,
      "공산주의": 8815,
      "안하고": 8816,
      "사퇴": 8817,
      "##라리": 8818,
      "##아닌": 8819,
      "말도": 8820,
      "해야지": 8821,
      "봐라": 8822,
      "보다": 8823,
      "##은거": 8824,
      "##져라": 8825,
      "하네": 8826,
      "있냐": 8827,
      "궁금": 8828,
      "그러니": 8829,
      "뭐냐": 8830,
      "##할수": 8831,
      "결혼": 8832,
      "조금": 8833,
      "사회주의": 8834,
      "##상이": 8835,
      "인간이": 8836,
      "하면서": 8837,
      "##져야": 8838,
      "공산당": 8839,
      "##지지": 8840,
      "않았": 8841,
      "학생": 8842,
      "##이러스": 8843,
      "보니": 8844,
      "##에서도": 8845,
      "모르고": 8846,
      "##겁니다": 8847,
      "감사": 8848,
      "있으니": 8849,
      "##고싶": 8850,
      "##거라": 8851,
      "것은": 8852,
      "##사일": 8853,
      "##아치": 8854,
      "공정": 8855,
      "일본은": 8856,
      "하시": 8857,
      "##수준": 8858,
      "군대": 8859,
      "않은": 8860,
      "##단체": 8861,
      "##나는": 8862,
      "확진": 8863,
      "종북": 8864,
      "##거든": 8865,
      "의원": 8866,
      "안된다": 8867,
      "##같다": 8868,
      "알아": 8869,
      "조선족": 8870,
      "능력": 8871,
      "원래": 8872,
      "차라리": 8873,
      "아는": 8874,
      "##구요": 8875,
      "솔직히": 8876,
      "##가요": 8877,
      "서로": 8878,
      "마라": 8879,
      "##기로": 8880,
      "당연히": 8881,
      "생각이": 8882,
      "모습": 8883,
      "혼자": 8884,
      "판단": 8885,
      "인간들": 8886,
      "##으니까": 8887,
      "있지": 8888,
      "##시대": 8889,
      "##하라고": 8890,
      "어려": 8891,
      "##해보": 8892,
      "##다는게": 8893,
      "평생": 8894,
      "지가": 8895,
      "##이들": 8896,
      "하지만": 8897,
      "비교": 8898,
      "조선일보": 8899,
      "감염": 8900,
      "받고": 8901,
      "법무부": 8902,
      "##조선": 8903,
      "##랍니다": 8904,
      "진심": 8905,
      "니들은": 8906,
      "싫어": 8907,
      "사람들은": 8908,
      "올라": 8909,
      "사진": 8910,
      "어린": 8911,
      "정치인": 8912,
      "보는": 8913,
      "40": 8914,
      "##장을": 8915,
      "##히려": 8916,
      "이기": 8917,
      "##놈이": 8918,
      "국민은": 8919,
      "##지를": 8920,
      "운동": 8921,
      "지들이": 8922,
      "이재": 8923,
      "도와": 8924,
      "문죄인": 8925,
      "##인거": 8926,
      "##없고": 8927,
      "한심한": 8928,
      "##해요": 8929,
      "자꾸": 8930,
      "##국이": 8931,
      "기본": 8932,
      "##순실": 8933,
      "비판": 8934,
      "##들한테": 8935,
      "##선거": 8936,
      "오히려": 8937,
      "화이팅": 8938,
      "맨날": 8939,
      "##말이": 8940,
      "##르는": 8941,
      "최저": 8942,
      "문재인은": 8943,
      "##자나": 8944,
      "##는거냐": 8945,
      "내년": 8946,
      "##인다": 8947,
      "하여": 8948,
      "사라": 8949,
      "무엇": 8950,
      "##식으로": 8951,
      "##하다고": 8952,
      "사법": 8953,
      "그거": 8954,
      "일부": 8955,
      "교수": 8956,
      "##어야지": 8957,
      "##우고": 8958,
      "##가지고": 8959,
      "때문": 8960,
      "##이었": 8961,
      "##시키고": 8962,
      "회사": 8963,
      "이유가": 8964,
      "놈들": 8965,
      "거의": 8966,
      "위해서": 8967,
      "하냐": 8968,
      "찾아": 8969,
      "그럴": 8970,
      "##나면": 8971,
      "태극": 8972,
      "##가면": 8973,
      "##이라면": 8974,
      "싶다": 8975,
      "##정희": 8976,
      "장난": 8977,
      "한마디": 8978,
      "현재": 8979,
      "자살": 8980,
      "지금은": 8981,
      "있습니다": 8982,
      "정부는": 8983,
      "##했던": 8984,
      "야당": 8985,
      "##까요": 8986,
      "없네": 8987,
      "매국노": 8988,
      "지키": 8989,
      "##상도": 8990,
      "치료": 8991,
      "있다고": 8992,
      "기회": 8993,
      "비리": 8994,
      "알았": 8995,
      "그동안": 8996,
      "##자고": 8997,
      "집값": 8998,
      "##지요": 8999,
      "##야한다": 9000,
      "국정": 9001,
      "쪽바리": 9002,
      "##로운": 9003,
      "사랑": 9004,
      "나서": 9005,
      "문통": 9006,
      "했는데": 9007,
      "항상": 9008,
      "다르": 9009,
      "애국": 9010,
      "정당": 9011,
      "##노총": 9012,
      "저러": 9013,
      "좋겠다": 9014,
      "그나": 9015,
      "가지": 9016,
      "하는게": 9017,
      "아냐": 9018,
      "이제는": 9019,
      "##하는건": 9020,
      "사용": 9021,
      "고생": 9022,
      "##성을": 9023,
      "주둥": 9024,
      "친구": 9025,
      "미세먼지": 9026,
      "대부분": 9027,
      "아들": 9028,
      "##한건": 9029,
      "기부": 9030,
      "최순실": 9031,
      "##에선": 9032,
      "보이": 9033,
      "##공자": 9034,
      "가는": 9035,
      "신경": 9036,
      "##더만": 9037,
      "##한다는": 9038,
      "너는": 9039,
      "##들이다": 9040,
      "##먹는": 9041,
      "기억": 9042,
      "##나고": 9043,
      "##수사": 9044,
      "심판": 9045,
      "박정희": 9046,
      "존재": 9047,
      "한다고": 9048,
      "자빠": 9049,
      "그건": 9050,
      "##어버": 9051,
      "자격": 9052,
      "##집단": 9053,
      "##에요": 9054,
      "주변": 9055,
      "라고": 9056,
      "헛소리": 9057,
      "무섭": 9058,
      "판사": 9059,
      "##가라": 9060,
      "감옥": 9061,
      "분명": 9062,
      "눈치": 9063,
      "##님이": 9064,
      "##시길": 9065,
      "##시장": 9066,
      "##시아": 9067,
      "##학생": 9068,
      "나왔": 9069,
      "몰아": 9070,
      "일이": 9071,
      "광주": 9072,
      "끝까지": 9073,
      "##만이": 9074,
      "시장": 9075,
      "없는데": 9076,
      "그것도": 9077,
      "드러": 9078,
      "##되어": 9079,
      "나와": 9080,
      "관련": 9081,
      "##하지만": 9082,
      "일단": 9083,
      "전문": 9084,
      "개판": 9085,
      "##군요": 9086,
      "독립": 9087,
      "##사파": 9088,
      "이야기": 9089,
      "##지게": 9090,
      "최소": 9091,
      "있음": 9092,
      "##겠다고": 9093,
      "할머니": 9094,
      "변호": 9095,
      "##우는": 9096,
      "##바로": 9097,
      "자리": 9098,
      "직접": 9099,
      "나올": 9100,
      "##0년": 9101,
      "이걸": 9102,
      "##지마": 9103,
      "힘내": 9104,
      "기생": 9105,
      "##파트": 9106,
      "의심": 9107,
      "어이": 9108,
      "논리": 9109,
      "##사람이": 9110,
      "전혀": 9111,
      "바이러스": 9112,
      "##시는": 9113,
      "##인줄": 9114,
      "미사일": 9115,
      "전세계": 9116,
      "강제": 9117,
      "국제": 9118,
      "##도가": 9119,
      "돈이": 9120,
      "##듯이": 9121,
      "##분이": 9122,
      "기다": 9123,
      "도움": 9124,
      "최악": 9125,
      "남의": 9126,
      "말하는": 9127,
      "##주면": 9128,
      "피해자": 9129,
      "엄마": 9130,
      "##봐도": 9131,
      "내용": 9132,
      "심각": 9133,
      "강남": 9134,
      "여행": 9135,
      "##보는": 9136,
      "##정이": 9137,
      "15": 9138,
      "##사건": 9139,
      "물어": 9140,
      "광화": 9141,
      "##던지": 9142,
      "우리는": 9143,
      "역대": 9144,
      "노조": 9145,
      "선택": 9146,
      "##냐고": 9147,
      "똑같은": 9148,
      "응원합니다": 9149,
      "양아치": 9150,
      "##했으면": 9151,
      "의사": 9152,
      "것을": 9153,
      "되었": 9154,
      "위선": 9155,
      "자체가": 9156,
      "##하지말고": 9157,
      "함께": 9158,
      "그랬": 9159,
      "##업자": 9160,
      "##분들": 9161,
      "의혹": 9162,
      "목숨": 9163,
      "인터": 9164,
      "민족": 9165,
      "일제": 9166,
      "무능한": 9167,
      "##18": 9168,
      "철저": 9169,
      "아마": 9170,
      "대변": 9171,
      "##나게": 9172,
      "상관": 9173,
      "##문회": 9174,
      "너도": 9175,
      "병원": 9176,
      "##세력": 9177,
      "미국이": 9178,
      "태극기": 9179,
      "##때는": 9180,
      "##아도": 9181,
      "사망": 9182,
      "##임금": 9183,
      "집회": 9184,
      "##내는": 9185,
      "노력": 9186,
      "ㅉㅉㅉ": 9187,
      "##하는지": 9188,
      "돈을": 9189,
      "끌어": 9190,
      "검찰이": 9191,
      "사이비": 9192,
      "아닌데": 9193,
      "쓰고": 9194,
      "##이로": 9195,
      "더럽": 9196,
      "##총장": 9197,
      "공감": 9198,
      "이해가": 9199,
      "##더라도": 9200,
      "아닙": 9201,
      "##줘야": 9202,
      "위험": 9203,
      "우파": 9204,
      "방법": 9205,
      "나중에": 9206,
      "이것": 9207,
      "한국인": 9208,
      "중국에": 9209,
      "하늘": 9210,
      "주장": 9211,
      "했다": 9212,
      "##겹다": 9213,
      "온갖": 9214,
      "되어": 9215,
      "이정도": 9216,
      "##안부": 9217,
      "##정치": 9218,
      "연예": 9219,
      "알아서": 9220,
      "사기꾼": 9221,
      "입니다": 9222,
      "대책": 9223,
      "답답": 9224,
      "##가족": 9225,
      "세금으로": 9226,
      "200": 9227,
      "##돌아": 9228,
      "누군": 9229,
      "비난": 9230,
      "일을": 9231,
      "가만히": 9232,
      "##수록": 9233,
      "그저": 9234,
      "##기만": 9235,
      "ㅎㅎㅎ": 9236,
      "##거냐": 9237,
      "하니": 9238,
      "바뀌": 9239,
      "상식": 9240,
      "##두환": 9241,
      "준비": 9242,
      "##을텐데": 9243,
      "재앙이": 9244,
      "어쩔": 9245,
      "믿고": 9246,
      "것들이": 9247,
      "재산": 9248,
      "없음": 9249,
      "특히": 9250,
      "괜찮": 9251,
      "##사고": 9252,
      "이럴": 9253,
      "##쓰고": 9254,
      "뭔가": 9255,
      "물론": 9256,
      "##여서": 9257,
      "##지말": 9258,
      "말은": 9259,
      "##하네요": 9260,
      "싶은": 9261,
      "##교육": 9262,
      "말로": 9263,
      "대응": 9264,
      "##합시다": 9265,
      "##상을": 9266,
      "안타깝": 9267,
      "건강": 9268,
      "택시": 9269,
      "##느라": 9270,
      "일자리": 9271,
      "자영": 9272,
      "##습니까": 9273,
      "사태": 9274,
      "##해야한다": 9275,
      "##당히": 9276,
      "##많은": 9277,
      "그러면": 9278,
      "억울": 9279,
      "##든지": 9280,
      "북한에": 9281,
      "##부대": 9282,
      "처럼": 9283,
      "대기업": 9284,
      "##지원": 9285,
      "가격": 9286,
      "하세요": 9287,
      "고소": 9288,
      "당신이": 9289,
      "자유한국": 9290,
      "느그": 9291,
      "##하려고": 9292,
      "안전": 9293,
      "하다": 9294,
      "##정을": 9295,
      "##하니까": 9296,
      "##걸로": 9297,
      "기대": 9298,
      "것들": 9299,
      "##선동": 9300,
      "전두환": 9301,
      "부터": 9302,
      "사람을": 9303,
      "더이상": 9304,
      "대해": 9305,
      "바랍니다": 9306,
      "##만명": 9307,
      "수출": 9308,
      "##놈들이": 9309,
      "에휴": 9310,
      "대선": 9311,
      "##할까": 9312,
      "주사파": 9313,
      "##하고있": 9314,
      "젊은": 9315,
      "페미": 9316,
      "똑같": 9317,
      "25": 9318,
      "위안부": 9319,
      "미통": 9320,
      "기술": 9321,
      "##온다": 9322,
      "애초": 9323,
      "여당": 9324,
      "나베": 9325,
      "조용히": 9326,
      "똑같이": 9327,
      "무너": 9328,
      "보호": 9329,
      "##이라니": 9330,
      "##져서": 9331,
      "일본에": 9332,
      "##철수": 9333,
      "짱개": 9334,
      "오래": 9335,
      "받을": 9336,
      "아닐": 9337,
      "##만에": 9338,
      "하자": 9339,
      "있다는": 9340,
      "그대로": 9341,
      "확인": 9342,
      "생각하는": 9343,
      "아니라고": 9344,
      "##됩니다": 9345,
      "자랑": 9346,
      "##었으면": 9347,
      "##위해": 9348,
      "시대": 9349,
      "##정책": 9350,
      "##스럽다": 9351,
      "##관계": 9352,
      "아니지": 9353,
      "##자기": 9354,
      "이리": 9355,
      "통일": 9356,
      "##세금": 9357,
      "##중동": 9358,
      "##심이": 9359,
      "문재앙이": 9360,
      "보기": 9361,
      "동네": 9362,
      "##자로": 9363,
      "가라": 9364,
      "북한이": 9365,
      "청문회": 9366,
      "국개": 9367,
      "수준이": 9368,
      "여기서": 9369,
      "생각해": 9370,
      "##생활": 9371,
      "##단다": 9372,
      "노동": 9373,
      "모른": 9374,
      "##겠나": 9375,
      "영화": 9376,
      "##그네": 9377,
      "2년": 9378,
      "수도": 9379,
      "되고": 9380,
      "운전": 9381,
      "깨끗": 9382,
      "고통": 9383,
      "##폐렴": 9384,
      "##진핑": 9385,
      "막말": 9386,
      "힘든": 9387,
      "자국민": 9388,
      "많다": 9389,
      "##사람들": 9390,
      "##이트": 9391,
      "##라니": 9392,
      "모자": 9393,
      "의미": 9394,
      "쓰는": 9395,
      "인사": 9396,
      "원숭": 9397,
      "본다": 9398,
      "만들고": 9399,
      "가진": 9400,
      "##레임": 9401,
      "하나도": 9402,
      "지난": 9403,
      "##어가": 9404,
      "##수를": 9405,
      "집권": 9406,
      "진정한": 9407,
      "에라이": 9408,
      "기생충": 9409,
      "##인가요": 9410,
      "##는가": 9411,
      "##주도": 9412,
      "과연": 9413,
      "들고": 9414,
      "정은이": 9415,
      "중국이": 9416,
      "광화문": 9417,
      "민노총": 9418,
      "한국은": 9419,
      "남편": 9420,
      "##을거": 9421,
      "##만한": 9422,
      "##사회": 9423,
      "왜구": 9424,
      "##졌네": 9425,
      "관계": 9426,
      "아파트": 9427,
      "판결": 9428,
      "벌써": 9429,
      "이놈": 9430,
      "분노": 9431,
      "빼고": 9432,
      "##겠다는": 9433,
      "놈들이": 9434,
      "지도": 9435,
      "표현": 9436,
      "않는다": 9437,
      "##할거": 9438,
      "금지": 9439,
      "##범죄": 9440,
      "##되지": 9441,
      "##리네": 9442,
      "##진국": 9443,
      "이익": 9444,
      "##줘라": 9445,
      "##잖아요": 9446,
      "서울대": 9447,
      "아무것도": 9448,
      "그나마": 9449,
      "##팔이": 9450,
      "##자들은": 9451,
      "아예": 9452,
      "##민주주의": 9453,
      "저게": 9454,
      "상대": 9455,
      "문제인": 9456,
      "악마": 9457,
      "이상한": 9458,
      "최저임금": 9459,
      "##을듯": 9460,
      "지금까지": 9461,
      "기가": 9462,
      "##물이": 9463,
      "진중": 9464,
      "##고도": 9465,
      "되지": 9466,
      "봐도": 9467,
      "지금도": 9468,
      "##겠네요": 9469,
      "##보내": 9470,
      "출신": 9471,
      "##하러": 9472,
      "몰랐": 9473,
      "조중동": 9474,
      "##그러": 9475,
      "문씨": 9476,
      "##두고": 9477,
      "보도": 9478,
      "돌아가": 9479,
      "##했네": 9480,
      "##받아": 9481,
      "##루킹": 9482,
      "대한민국을": 9483,
      "##언론": 9484,
      "한심하다": 9485,
      "투자": 9486,
      "뽑아": 9487,
      "청원": 9488,
      "민주당이": 9489,
      "잘못된": 9490,
      "##한것": 9491,
      "저지": 9492,
      "바꿔": 9493,
      "없어서": 9494,
      "옹호": 9495,
      "우선": 9496,
      "뭐라": 9497,
      "까지": 9498,
      "##하려": 9499,
      "입장": 9500,
      "웃기": 9501,
      "법을": 9502,
      "포기": 9503,
      "##명을": 9504,
      "소득": 9505,
      "##력을": 9506,
      "시진핑": 9507,
      "발언": 9508,
      "하지말고": 9509,
      "생겼": 9510,
      "##으며": 9511,
      "좌좀": 9512,
      "대놓고": 9513,
      "아가리": 9514,
      "하는짓": 9515,
      "시위": 9516,
      "대한민국의": 9517,
      "##댓글": 9518,
      "##가가": 9519,
      "##방송": 9520,
      "미쳤": 9521,
      "##이를": 9522,
      "강력": 9523,
      "어휴": 9524,
      "없지": 9525,
      "집에": 9526,
      "##자도": 9527,
      "죽은": 9528,
      "놈이": 9529,
      "부산": 9530,
      "극우": 9531,
      "##잡고": 9532,
      "치매": 9533,
      "본인이": 9534,
      "두고": 9535,
      "국방": 9536,
      "아프": 9537,
      "##없어": 9538,
      "정확": 9539,
      "##당한": 9540,
      "저거": 9541,
      "이래서": 9542,
      "받는": 9543,
      "불매운동": 9544,
      "##가야": 9545,
      "가져": 9546,
      "바꾸": 9547,
      "갑자기": 9548,
      "애초에": 9549,
      "##ㅎㅎ": 9550,
      "관리": 9551,
      "진중권": 9552,
      "##트남": 9553,
      "전화": 9554,
      "할수": 9555,
      "중앙": 9556,
      "노인": 9557,
      "부끄럽": 9558,
      "인간들이": 9559,
      "##겠습니다": 9560,
      "##시오": 9561,
      "부탁": 9562,
      "해주": 9563,
      "입국금지": 9564,
      "##미향": 9565,
      "생각을": 9566,
      "##으려고": 9567,
      "주고": 9568,
      "사업": 9569,
      "설치": 9570,
      "##좌파": 9571,
      "대한민국이": 9572,
      "##나보네": 9573,
      "단체": 9574,
      "##여행": 9575,
      "되면": 9576,
      "올려": 9577,
      "발전": 9578,
      "그래야": 9579,
      "##겠죠": 9580,
      "죄다": 9581,
      "바라": 9582,
      "조심": 9583,
      "애들이": 9584,
      "##시켜라": 9585,
      "이딴": 9586,
      "유치": 9587,
      "##공산": 9588,
      "그렇지": 9589,
      "투기": 9590,
      "##하겠다": 9591,
      "나오는": 9592,
      "문정부": 9593,
      "제목": 9594,
      "##받는": 9595,
      "한테": 9596,
      "실제": 9597,
      "만드": 9598,
      "통합": 9599,
      "##사를": 9600,
      "##독교": 9601,
      "말씀": 9602,
      "##반도": 9603,
      "청년": 9604,
      "무식한": 9605,
      "살고": 9606,
      "훨씬": 9607,
      "아버": 9608,
      "지지하는": 9609,
      "제정신": 9610,
      "한국이": 9611,
      "##질이": 9612,
      "당선": 9613,
      "생긴": 9614,
      "##시킨": 9615,
      "##가락": 9616,
      "똑바로": 9617,
      "행복": 9618,
      "##수는": 9619,
      "윤미향": 9620,
      "##머리": 9621,
      "없으면": 9622,
      "##하더니": 9623,
      "자가": 9624,
      "##인듯": 9625,
      "##따위": 9626,
      "##슬람": 9627,
      "##까봐": 9628,
      "말아": 9629,
      "없었": 9630,
      "비례": 9631,
      "안나": 9632,
      "부족": 9633,
      "##가능": 9634,
      "##사태": 9635,
      "싫다": 9636,
      "##달라고": 9637,
      "물러": 9638,
      "이번에": 9639,
      "조국은": 9640,
      "못하게": 9641,
      "때려": 9642,
      "경제가": 9643,
      "영원": 9644,
      "##OOO": 9645,
      "죽여": 9646,
      "받았": 9647,
      "꼬라지": 9648,
      "악플": 9649,
      "특검": 9650,
      "##하는것": 9651,
      "##자의": 9652,
      "인민": 9653,
      "우리도": 9654,
      "##인의": 9655,
      "##지역": 9656,
      "도둑": 9657,
      "유튜": 9658,
      "짜증": 9659,
      "ㅈㄹ": 9660,
      "남한": 9661,
      "나라는": 9662,
      "주는": 9663,
      "##했냐": 9664,
      "충분": 9665,
      "##서는": 9666,
      "박원": 9667,
      "##구리": 9668,
      "3년": 9669,
      "선동질": 9670,
      "##제에": 9671,
      "민주화": 9672,
      "불안": 9673,
      "##짓을": 9674,
      "미쳐": 9675,
      "호구": 9676,
      "희생": 9677,
      "##체를": 9678,
      "전에": 9679,
      "집안": 9680,
      "없다고": 9681,
      "##위에": 9682,
      "생활": 9683,
      "##쓰레기": 9684,
      "12": 9685,
      "빨갱": 9686,
      "기사를": 9687,
      "구라": 9688,
      "물타": 9689,
      "##하신": 9690,
      "##같은데": 9691,
      "베트남": 9692,
      "##자식": 9693,
      "쪽팔": 9694,
      "미개": 9695,
      "##학교": 9696,
      "멍청한": 9697,
      "##되었": 9698,
      "있어야": 9699,
      "##인을": 9700,
      "자기가": 9701,
      "##려나": 9702,
      "혹시": 9703,
      "10년": 9704,
      "범죄자": 9705,
      "아닙니다": 9706,
      "##없네": 9707,
      "재판": 9708,
      "경험": 9709,
      "신고": 9710,
      "민주당은": 9711,
      "환경": 9712,
      "##미터": 9713,
      "이러니": 9714,
      "손혜": 9715,
      "않나": 9716,
      "방사": 9717,
      "따로": 9718,
      "##떨어": 9719,
      "이중": 9720,
      "##싶다": 9721,
      "자유한국당": 9722,
      "감성": 9723,
      "살아라": 9724,
      "있을까": 9725,
      "짓거리": 9726,
      "수십": 9727,
      "##했지": 9728,
      "비슷": 9729,
      "##지로": 9730,
      "전국민": 9731,
      "##한번": 9732,
      "정권이": 9733,
      "##하지마라": 9734,
      "##간에": 9735,
      "직원": 9736,
      "많아": 9737,
      "드루킹": 9738,
      "##먹을": 9739,
      "##립니다": 9740,
      "##먹은": 9741,
      "지방": 9742,
      "언제까지": 9743,
      "당신은": 9744,
      "##애들": 9745,
      "이런거": 9746,
      "있는지": 9747,
      "쓰레기들": 9748,
      "폭망": 9749,
      "##에만": 9750,
      "분열": 9751,
      "만드는": 9752,
      "돌려": 9753,
      "거리": 9754,
      "##이든": 9755,
      "방역": 9756,
      "60": 9757,
      "##줌마": 9758,
      "나라냐": 9759,
      "등등": 9760,
      "미군": 9761,
      "##어준": 9762,
      "놓고": 9763,
      "518": 9764,
      "발표": 9765,
      "##수수": 9766,
      "대통령님": 9767,
      "북괴": 9768,
      "쩝쩝": 9769,
      "##ㅉㅉ": 9770,
      "##는구나": 9771,
      "##대중": 9772,
      "운영": 9773,
      "장사": 9774,
      "어렵": 9775,
      "##니깐": 9776,
      "부르": 9777,
      "##개월": 9778,
      "##미애": 9779,
      "생산": 9780,
      "##일까": 9781,
      "##있냐": 9782,
      "국민들을": 9783,
      "##기들": 9784,
      "문정권": 9785,
      "다행": 9786,
      "##인들이": 9787,
      "##있고": 9788,
      "##해봐라": 9789,
      "##조차": 9790,
      "##그래": 9791,
      "유공자": 9792,
      "##나간": 9793,
      "수입": 9794,
      "매일": 9795,
      "##부로": 9796,
      "확진자": 9797,
      "불러": 9798,
      "##당에": 9799,
      "가해": 9800,
      "##폭행": 9801,
      "미안": 9802,
      "아닌가요": 9803,
      "##19": 9804,
      "##독재": 9805,
      "꼴통": 9806,
      "개가": 9807,
      "찬성": 9808,
      "들어가": 9809,
      "처리": 9810,
      "입만": 9811,
      "기준": 9812,
      "못할": 9813,
      "승리": 9814,
      "당시": 9815,
      "##득권": 9816,
      "우리나라는": 9817,
      "안좋": 9818,
      "중국은": 9819,
      "프레임": 9820,
      "희망": 9821,
      "알려": 9822,
      "법무부장관": 9823,
      "신뢰": 9824,
      "적당히": 9825,
      "##오는": 9826,
      "##였다": 9827,
      "##구먼": 9828,
      "뇌가": 9829,
      "죽을": 9830,
      "##공개": 9831,
      "##보수": 9832,
      "##화가": 9833,
      "총장": 9834,
      "한국에": 9835,
      "저질": 9836,
      "교활": 9837,
      "받은": 9838,
      "조국을": 9839,
      "빨아": 9840,
      "점점": 9841,
      "ㅅㅂ": 9842,
      "맞다": 9843,
      "안된": 9844,
      "인구": 9845,
      "유지": 9846,
      "안철수": 9847,
      "##구석": 9848,
      "##준표": 9849,
      "대통령은": 9850,
      "##했고": 9851,
      "가면": 9852,
      "저기": 9853,
      "나라에서": 9854,
      "있어서": 9855,
      "##리자": 9856,
      "19": 9857,
      "##일을": 9858,
      "문대통령": 9859,
      "씨부": 9860,
      "##해주세요": 9861,
      "##집회": 9862,
      "세상이": 9863,
      "너같은": 9864,
      "뒤집": 9865,
      "썩은": 9866,
      "##지네": 9867,
      "정보": 9868,
      "##말로": 9869,
      "원전": 9870,
      "##치가": 9871,
      "만약": 9872,
      "혜택": 9873,
      "전국": 9874,
      "##빨갱이": 9875,
      "##000": 9876,
      "1년": 9877,
      "발생": 9878,
      "##장에": 9879,
      "하던": 9880,
      "##하지않": 9881,
      "하는지": 9882,
      "자유민주주의": 9883,
      "##재앙": 9884,
      "공격": 9885,
      "돈으로": 9886,
      "##라인": 9887,
      "인터넷": 9888,
      "아니야": 9889,
      "남탓": 9890,
      "들이": 9891,
      "느낌": 9892,
      "요구": 9893,
      "##하다가": 9894,
      "가슴": 9895,
      "없으니": 9896,
      "감방": 9897,
      "그러니까": 9898,
      "일어나": 9899,
      "##할듯": 9900,
      "##었나": 9901,
      "바란다": 9902,
      "협박": 9903,
      "고발": 9904,
      "##이도": 9905,
      "우한폐렴": 9906,
      "취급": 9907,
      "명단": 9908,
      "어제": 9909,
      "##있네": 9910,
      "##어리": 9911,
      "가르": 9912,
      "##치를": 9913,
      "웃긴": 9914,
      "정의당": 9915,
      "게임": 9916,
      "##도로": 9917,
      "##본다": 9918,
      "##리기": 9919,
      "헌법": 9920,
      "고민": 9921,
      "##부모": 9922,
      "아깝": 9923,
      "돈벌": 9924,
      "사람도": 9925,
      "70": 9926,
      "무서운": 9927,
      "바른": 9928,
      "일어": 9929,
      "새끼들": 9930,
      "고맙": 9931,
      "홍준표": 9932,
      "##새끼들": 9933,
      "소비": 9934,
      "##리게": 9935,
      "지껄": 9936,
      "하기": 9937,
      "안가": 9938,
      "누굴": 9939,
      "저리": 9940,
      "싸움": 9941,
      "##검사": 9942,
      "느끼": 9943,
      "친중": 9944,
      "있는거": 9945,
      "##아닌가": 9946,
      "철저히": 9947,
      "##대고": 9948,
      "일본의": 9949,
      "나라에": 9950,
      "##입니까": 9951,
      "##보단": 9952,
      "정경": 9953,
      "##님들": 9954,
      "쉽게": 9955,
      "관광": 9956,
      "방사능": 9957,
      "기득권": 9958,
      "옛날": 9959,
      "아나": 9960,
      "경우": 9961,
      "밀어": 9962,
      "존나": 9963,
      "##이네요": 9964,
      "대통": 9965,
      "##감정": 9966,
      "믿을": 9967,
      "대처": 9968,
      "감정": 9969,
      "어이가": 9970,
      "노예": 9971,
      "##사람은": 9972,
      "확실히": 9973,
      "##것들은": 9974,
      "격리": 9975,
      "의료진": 9976,
      "##악한": 9977,
      "물타기": 9978,
      "예전": 9979,
      "지옥": 9980,
      "개발": 9981,
      "손혜원": 9982,
      "##상에": 9983,
      "무죄": 9984,
      "성공": 9985,
      "늘어": 9986,
      "벌어": 9987,
      "결정": 9988,
      "주식": 9989,
      "정치를": 9990,
      "러시아": 9991,
      "##주기": 9992,
      "자한당은": 9993,
      "전염": 9994,
      "##년이": 9995,
      "##심을": 9996,
      "정작": 9997,
      "##부가": 9998,
      "나라의": 9999,
      "표창": 10000,
      "하지마라": 10001,
      "잘하고": 10002,
      "##은데": 10003,
      "##보다는": 10004,
      "##도를": 10005,
      "하긴": 10006,
      "##보기": 10007,
      "##들이나": 10008,
      "됩니다": 10009,
      "##만도": 10010,
      "대해서": 10011,
      "유럽": 10012,
      "##상황": 10013,
      "냄새": 10014,
      "좋아하는": 10015,
      "##때문": 10016,
      "답이다": 10017,
      "마세요": 10018,
      "##놓은": 10019,
      "그러나": 10020,
      "뭔지": 10021,
      "##레이": 10022,
      "몰라": 10023,
      "##되서": 10024,
      "자신의": 10025,
      "##렸다": 10026,
      "살기": 10027,
      "목사": 10028,
      "##길래": 10029,
      "이후": 10030,
      "##겠어": 10031,
      "##한다면": 10032,
      "굳이": 10033,
      "고마": 10034,
      "##일뿐": 10035,
      "##이지만": 10036,
      "대한민국은": 10037,
      "##러워": 10038,
      "##지막": 10039,
      "의견": 10040,
      "국가가": 10041,
      "##하셨": 10042,
      "물고": 10043,
      "통계": 10044,
      "나와서": 10045,
      "나오면": 10046,
      "착각": 10047,
      "답이": 10048,
      "##바닥": 10049,
      "##말을": 10050,
      "##타령": 10051,
      "##기관": 10052,
      "힘을": 10053,
      "가정": 10054,
      "똑똑": 10055,
      "이제와서": 10056,
      "많네": 10057,
      "단식": 10058,
      "죄가": 10059,
      "군사": 10060,
      "달라": 10061,
      "모양": 10062,
      "##의를": 10063,
      "##까운": 10064,
      "문제는": 10065,
      "일으": 10066,
      "##쳐서": 10067,
      "미국은": 10068,
      "세상에": 10069,
      "개념": 10070,
      "발악": 10071,
      "없습니다": 10072,
      "##진짜": 10073,
      "지구": 10074,
      "남북": 10075,
      "자한당이": 10076,
      "이지": 10077,
      "##쟁이": 10078,
      "다녀": 10079,
      "##때까지": 10080,
      "어려운": 10081,
      "일본을": 10082,
      "손해": 10083,
      "많은데": 10084,
      "기독교": 10085,
      "##누리": 10086,
      "유니": 10087,
      "추미애": 10088,
      "또라이": 10089,
      "마약": 10090,
      "선생": 10091,
      "취업": 10092,
      "밝히": 10093,
      "우린": 10094,
      "##아버": 10095,
      "이낙": 10096,
      "##가를": 10097,
      "변호사": 10098,
      "말아먹": 10099,
      "OOO들": 10100,
      "##장은": 10101,
      "##로는": 10102,
      "집에서": 10103,
      "##겠어요": 10104,
      "##으라고": 10105,
      "##돈으로": 10106,
      "보인다": 10107,
      "바람": 10108,
      "##한테는": 10109,
      "신문": 10110,
      "없나": 10111,
      "최소한": 10112,
      "평등": 10113,
      "리얼": 10114,
      "보자": 10115,
      "##있는데": 10116,
      "여러분": 10117,
      "마찬": 10118,
      "한반도": 10119,
      "광고": 10120,
      "이만": 10121,
      "뭐라고": 10122,
      "이민": 10123,
      "##받을": 10124,
      "여자가": 10125,
      "다를": 10126,
      "##졌다": 10127,
      "##거고": 10128,
      "했던": 10129,
      "아무도": 10130,
      "여론조사": 10131,
      "##적이고": 10132,
      "참으로": 10133,
      "미통당": 10134,
      "##안하고": 10135,
      "둘다": 10136,
      "대출": 10137,
      "국민들의": 10138,
      "##있나": 10139,
      "##우면": 10140,
      "없을": 10141,
      "존경": 10142,
      "##상은": 10143,
      "힘들어": 10144,
      "한다는": 10145,
      "비싸": 10146,
      "조직": 10147,
      "강간": 10148,
      "유튜브": 10149,
      "않을": 10150,
      "##리냐": 10151,
      "규제": 10152,
      "##용이": 10153,
      "대신": 10154,
      "자기들": 10155,
      "##하겠지": 10156,
      "하나님": 10157,
      "수구": 10158,
      "운운": 10159,
      "용서": 10160,
      "시원": 10161,
      "##쓰는": 10162,
      "죽창": 10163,
      "##출신": 10164,
      "삶은": 10165,
      "##으로서": 10166,
      "안돼": 10167,
      "##때도": 10168,
      "##소년": 10169,
      "믿는": 10170,
      "타령": 10171,
      "##준다": 10172,
      "생기": 10173,
      "##복을": 10174,
      "힘내세요": 10175,
      "거다": 10176,
      "##짜리": 10177,
      "##화를": 10178,
      "대깨문들": 10179,
      "자빠졌네": 10180,
      "근거": 10181,
      "대단한": 10182,
      "기소": 10183,
      "우습": 10184,
      "정신나간": 10185,
      "##연금": 10186,
      "애비": 10187,
      "동물": 10188,
      "한번도": 10189,
      "##일본": 10190,
      "##것같": 10191,
      "갖다": 10192,
      "##었네": 10193,
      "##갔다": 10194,
      "뽑은": 10195,
      "##일은": 10196,
      "##보지": 10197,
      "법이": 10198,
      "##시키는": 10199,
      "##십니다": 10200,
      "등신": 10201,
      "동맹": 10202,
      "한명": 10203,
      "##시켜야": 10204,
      "##없음": 10205,
      "갖고": 10206,
      "떠나": 10207,
      "없냐": 10208,
      "##도는": 10209,
      "자존": 10210,
      "##이기": 10211,
      "##지어": 10212,
      "아줌마": 10213,
      "눈물": 10214,
      "빠져": 10215,
      "맞지": 10216,
      "했으면": 10217,
      "감싸": 10218,
      "왜이": 10219,
      "마지막": 10220,
      "##워라": 10221,
      "죽어": 10222,
      "##조리": 10223,
      "쉴드": 10224,
      "##났다": 10225,
      "이낙연": 10226,
      "정치적": 10227,
      "##테니": 10228,
      "##수수색": 10229,
      "ㅂㅅ": 10230,
      "##거면": 10231,
      "말만": 10232,
      "20대": 10233,
      "기분": 10234,
      "##씨가": 10235,
      "문가": 10236,
      "마누": 10237,
      "도덕": 10238,
      "##시절": 10239,
      "철수": 10240,
      "##했다는": 10241,
      "##로지": 10242,
      "주민": 10243,
      "##했나": 10244,
      "도망": 10245,
      "##아니냐": 10246,
      "통과": 10247,
      "김대중": 10248,
      "홍콩": 10249,
      "필요한": 10250,
      "검찰은": 10251,
      "경상도": 10252,
      "마치": 10253,
      "합시다": 10254,
      "##민족": 10255,
      "##하길": 10256,
      "죄를": 10257,
      "뭐하는": 10258,
      "##청산": 10259,
      "좃선": 10260,
      "동원": 10261,
      "##림픽": 10262,
      "##있으면": 10263,
      "라는": 10264,
      "문슬람": 10265,
      "받아야": 10266,
      "크게": 10267,
      "##저리": 10268,
      "자영업": 10269,
      "칭찬": 10270,
      "수가": 10271,
      "생각하고": 10272,
      "자동": 10273,
      "##상으로": 10274,
      "역겨": 10275,
      "폐지": 10276,
      "성폭행": 10277,
      "어리": 10278,
      "김일": 10279,
      "##필요": 10280,
      "해체": 10281,
      "대다": 10282,
      "##짓거리": 10283,
      "정신병자": 10284,
      "##농단": 10285,
      "자본": 10286,
      "대변인": 10287,
      "시절": 10288,
      "실망": 10289,
      "##았는데": 10290,
      "무기": 10291,
      "##느냐": 10292,
      "우리의": 10293,
      "연구": 10294,
      "자녀": 10295,
      "##그리": 10296,
      "한국의": 10297,
      "외국인": 10298,
      "##검찰": 10299,
      "실패": 10300,
      "##셔서": 10301,
      "중요한": 10302,
      "##아니라": 10303,
      "##금을": 10304,
      "못해": 10305,
      "저도": 10306,
      "##들에": 10307,
      "진행": 10308,
      "주세요": 10309,
      "겁니다": 10310,
      "일은": 10311,
      "##시면": 10312,
      "##것만": 10313,
      "##나가": 10314,
      "유니클": 10315,
      "한달": 10316,
      "##한거지": 10317,
      "##속에": 10318,
      "##땜에": 10319,
      "##버리고": 10320,
      "우리나라가": 10321,
      "##을까요": 10322,
      "가고": 10323,
      "이것도": 10324,
      "홍어": 10325,
      "##권을": 10326,
      "##위를": 10327,
      "##책임": 10328,
      "대단하다": 10329,
      "##분에": 10330,
      "싸우": 10331,
      "##스러운": 10332,
      "##신도": 10333,
      "아베가": 10334,
      "##아니고": 10335,
      "##참에": 10336,
      "이루": 10337,
      "초등": 10338,
      "개돼지들": 10339,
      "원숭이": 10340,
      "##하다는": 10341,
      "압수수색": 10342,
      "##성은": 10343,
      "##아가": 10344,
      "직장": 10345,
      "문제다": 10346,
      "한거": 10347,
      "##넘들": 10348,
      "봐야": 10349,
      "좋다": 10350,
      "이념": 10351,
      "##무시": 10352,
      "##아냐": 10353,
      "박원순": 10354,
      "외치": 10355,
      "오로지": 10356,
      "##었지": 10357,
      "김경": 10358,
      "생각은": 10359,
      "정권을": 10360,
      "가야": 10361,
      "##받은": 10362,
      "이만희": 10363,
      "##활동": 10364,
      "더욱": 10365,
      "뇌물": 10366,
      "소설": 10367,
      "##여자": 10368,
      "통제": 10369,
      "##시에": 10370,
      "세력": 10371,
      "##는데도": 10372,
      "이재명": 10373,
      "정부의": 10374,
      "소대가리": 10375,
      "좋다고": 10376,
      "해봐라": 10377,
      "자주": 10378,
      "이시": 10379,
      "##예요": 10380,
      "짓을": 10381,
      "거부": 10382,
      "눈에": 10383,
      "또한": 10384,
      "어른": 10385,
      "최악의": 10386,
      "공짜": 10387,
      "##이에": 10388,
      "##르게": 10389,
      "직업": 10390,
      "팔아": 10391,
      "단순": 10392,
      "인물": 10393,
      "##당하고": 10394,
      "뭔데": 10395,
      "괜히": 10396,
      "합의": 10397,
      "문화": 10398,
      "나온다": 10399,
      "현대": 10400,
      "##교수": 10401,
      "정권의": 10402,
      "참여": 10403,
      "일본과": 10404,
      "책임을": 10405,
      "이해찬": 10406,
      "아웃": 10407,
      "##말은": 10408,
      "##었다고": 10409,
      "##으나": 10410,
      "재난": 10411,
      "거기에": 10412,
      "끌어내": 10413,
      "##원도": 10414,
      "설명": 10415,
      "마찬가지": 10416,
      "와서": 10417,
      "정은": 10418,
      "프로": 10419,
      "##어주": 10420,
      "있다면": 10421,
      "그지": 10422,
      "##원에": 10423,
      "##민주당": 10424,
      "##물고": 10425,
      "창피": 10426,
      "포함": 10427,
      "화가": 10428,
      "##아지": 10429,
      "북한은": 10430,
      "먹는": 10431,
      "##사실": 10432,
      "마이": 10433,
      "##되는데": 10434,
      "뭐하냐": 10435,
      "##놈들은": 10436,
      "적극": 10437,
      "한일": 10438,
      "보상": 10439,
      "##께서": 10440,
      "##투표": 10441,
      "으로": 10442,
      "쯧쯧": 10443,
      "역겹다": 10444,
      "완전히": 10445,
      "이참에": 10446,
      "미리": 10447,
      "만나": 10448,
      "진실을": 10449,
      "11": 10450,
      "핑계": 10451,
      "임기": 10452,
      "##달라": 10453,
      "배달": 10454,
      "##다운": 10455,
      "##비리": 10456,
      "##공산당": 10457,
      "되는데": 10458,
      "자연": 10459,
      "##하는거지": 10460,
      "이유는": 10461,
      "##놈의": 10462,
      "당연한": 10463,
      "나불": 10464,
      "무지": 10465,
      "그런거": 10466,
      "후보": 10467,
      "지능": 10468,
      "##하는구나": 10469,
      "올리": 10470,
      "무리": 10471,
      "물건": 10472,
      "##시기": 10473,
      "배신": 10474,
      "##잘못": 10475,
      "나쁘": 10476,
      "하여간": 10477,
      "연예인": 10478,
      "구분": 10479,
      "##원은": 10480,
      "##오면": 10481,
      "##질을": 10482,
      "감사합니다": 10483,
      "##놈은": 10484,
      "##았네": 10485,
      "하라고": 10486,
      "1도": 10487,
      "김정은이": 10488,
      "##입국": 10489,
      "##하고는": 10490,
      "한국에서": 10491,
      "##소득": 10492,
      "소름": 10493,
      "##모양": 10494,
      "영원히": 10495,
      "상태": 10496,
      "부끄러운": 10497,
      "나타": 10498,
      "##꼴통": 10499,
      "챙겨": 10500,
      "##했는지": 10501,
      "혈세": 10502,
      "선진국": 10503,
      "##었냐": 10504,
      "현정부": 10505,
      "300": 10506,
      "나눠": 10507,
      "전체": 10508,
      "##일에": 10509,
      "죽음": 10510,
      "짐승": 10511,
      "한국을": 10512,
      "##이며": 10513,
      "간다": 10514,
      "별로": 10515,
      "##쳐먹": 10516,
      "두번": 10517,
      "오르": 10518,
      "##제품": 10519,
      "큰일": 10520,
      "##위가": 10521,
      "##통수": 10522,
      "합리": 10523,
      "유승": 10524,
      "벌레": 10525,
      "몇년": 10526,
      "##겠니": 10527,
      "##조가": 10528,
      "정부에서": 10529,
      "좀비": 10530,
      "부모가": 10531,
      "유니클로": 10532,
      "나머": 10533,
      "내부": 10534,
      "##든가": 10535,
      "욕하는": 10536,
      "##했을": 10537,
      "##되냐": 10538,
      "변명": 10539,
      "공장": 10540,
      "너가": 10541,
      "80": 10542,
      "후손": 10543,
      "##와라": 10544,
      "##수로": 10545,
      "##으려": 10546,
      "안될": 10547,
      "경쟁": 10548,
      "정상적인": 10549,
      "언론이": 10550,
      "총선에서": 10551,
      "놀아": 10552,
      "##법을": 10553,
      "##그릇": 10554,
      "##하시는": 10555,
      "##네들": 10556,
      "##스럽게": 10557,
      "미치": 10558,
      "##위원": 10559,
      "버티": 10560,
      "되는거": 10561,
      "활동": 10562,
      "하야": 10563,
      "##감이": 10564,
      "전문가": 10565,
      "##있어": 10566,
      "##럽다": 10567,
      "중국에서": 10568,
      "##시요": 10569,
      "불리": 10570,
      "##운전": 10571,
      "전형": 10572,
      "욕먹": 10573,
      "되냐": 10574,
      "##이자": 10575,
      "##었던": 10576,
      "정권은": 10577,
      "##내서": 10578,
      "##줘서": 10579,
      "##위기": 10580,
      "##안이": 10581,
      "하게": 10582,
      "원하는": 10583,
      "세뇌": 10584,
      "##대한민국": 10585,
      "민생": 10586,
      "법무장관": 10587,
      "불편": 10588,
      "##지에": 10589,
      "불쌍한": 10590,
      "반도": 10591,
      "순간": 10592,
      "있지만": 10593,
      "만들어서": 10594,
      "##관이": 10595,
      "노래": 10596,
      "##주택": 10597,
      "움직": 10598,
      "듣고": 10599,
      "##쓴다": 10600,
      "##빠진": 10601,
      "전교": 10602,
      "마누라": 10603,
      "안하는": 10604,
      "##사람들이": 10605,
      "##친다": 10606,
      "##벌레": 10607,
      "1억": 10608,
      "문재인과": 10609,
      "단어": 10610,
      "임금": 10611,
      "않으면": 10612,
      "##스템": 10613,
      "##석희": 10614,
      "국개의원": 10615,
      "함부로": 10616,
      "충분히": 10617,
      "달창들": 10618,
      "좌빨들": 10619,
      "위에": 10620,
      "하더니": 10621,
      "##으세요": 10622,
      "맘대로": 10623,
      "일부러": 10624,
      "##보세요": 10625,
      "저딴": 10626,
      "##나네": 10627,
      "내고": 10628,
      "분들": 10629,
      "알지": 10630,
      "배우": 10631,
      "##해놓고": 10632,
      "##대를": 10633,
      "봅니다": 10634,
      "초딩": 10635,
      "팔아먹": 10636,
      "##겠는데": 10637,
      "음주": 10638,
      "있어요": 10639,
      "만큼": 10640,
      "아빠": 10641,
      "##많이": 10642,
      "공천": 10643,
      "세금을": 10644,
      "##꺼다": 10645,
      "##발이": 10646,
      "다시는": 10647,
      "경제는": 10648,
      "찬양": 10649,
      "천벌": 10650,
      "##리아": 10651,
      "황교활": 10652,
      "##전쟁": 10653,
      "##보험": 10654,
      "국민에게": 10655,
      "##기전에": 10656,
      "맞아": 10657,
      "##임을": 10658,
      "잡고": 10659,
      "##르스": 10660,
      "##거리는": 10661,
      "##해봐": 10662,
      "좌파들": 10663,
      "##앞에": 10664,
      "나라꼴": 10665,
      "동의": 10666,
      "보복": 10667,
      "반미": 10668,
      "벌금": 10669,
      "##스런": 10670,
      "개학": 10671,
      "##디어": 10672,
      "##하려는": 10673,
      "예산": 10674,
      "빨갱이들": 10675,
      "##위로": 10676,
      "하라": 10677,
      "##정당": 10678,
      "사실을": 10679,
      "지금의": 10680,
      "거기서": 10681,
      "##원에서": 10682,
      "주둥이": 10683,
      "##는다고": 10684,
      "##드립니다": 10685,
      "달려": 10686,
      "결론": 10687,
      "검색": 10688,
      "##아리": 10689,
      "시급": 10690,
      "뭐야": 10691,
      "이혼": 10692,
      "부정선거": 10693,
      "##마트": 10694,
      "성장": 10695,
      "있는게": 10696,
      "고려": 10697,
      "대통령을": 10698,
      "애들은": 10699,
      "##라시": 10700,
      "##할것": 10701,
      "사법부": 10702,
      "너나": 10703,
      "이어": 10704,
      "##안에": 10705,
      "##제를": 10706,
      "챙기": 10707,
      "##셔야": 10708,
      "모르겠다": 10709,
      "산다": 10710,
      "느껴": 10711,
      "살려": 10712,
      "자위": 10713,
      "말한": 10714,
      "##고있다": 10715,
      "한두": 10716,
      "혐오": 10717,
      "90": 10718,
      "조만": 10719,
      "목소리": 10720,
      "##원전": 10721,
      "없다는": 10722,
      "클럽": 10723,
      "##방에": 10724,
      "##즈아": 10725,
      "##판에": 10726,
      "무뇌": 10727,
      "대화": 10728,
      "부패": 10729,
      "모를": 10730,
      "모조리": 10731,
      "머리가": 10732,
      "##아이": 10733,
      "##았으면": 10734,
      "너거": 10735,
      "자체": 10736,
      "##인도": 10737,
      "양반": 10738,
      "한미": 10739,
      "##잡아": 10740,
      "영향": 10741,
      "찍어": 10742,
      "영웅": 10743,
      "논문": 10744,
      "##기나": 10745,
      "중소": 10746,
      "지하": 10747,
      "국민세금": 10748,
      "##있음": 10749,
      "##지사": 10750,
      "왜곡": 10751,
      "안해": 10752,
      "기도": 10753,
      "박그네": 10754,
      "201": 10755,
      "하는구나": 10756,
      "지지합니다": 10757,
      "아이들": 10758,
      "##이죠": 10759,
      "자유당": 10760,
      "##줄알": 10761,
      "그만해라": 10762,
      "##따라": 10763,
      "보유": 10764,
      "비정": 10765,
      "보통": 10766,
      "##는것": 10767,
      "운동권": 10768,
      "##서야": 10769,
      "##레스": 10770,
      "이라고": 10771,
      "##대의": 10772,
      "윤석렬": 10773,
      "추종": 10774,
      "##리라": 10775,
      "명예": 10776,
      "예수": 10777,
      "심지어": 10778,
      "잘한다": 10779,
      "##하긴": 10780,
      "##상태": 10781,
      "생명": 10782,
      "틀린": 10783,
      "하지말": 10784,
      "고용": 10785,
      "##씨는": 10786,
      "당당": 10787,
      "##리나": 10788,
      "타고": 10789,
      "의무": 10790,
      "소리를": 10791,
      "대박": 10792,
      "이성": 10793,
      "새로운": 10794,
      "사장": 10795,
      "괴롭": 10796,
      "##국의": 10797,
      "에이": 10798,
      "##에게는": 10799,
      "##치면": 10800,
      "일본으로": 10801,
      "스트": 10802,
      "예배": 10803,
      "이분": 10804,
      "##회사": 10805,
      "속이": 10806,
      "겨우": 10807,
      "##하지마": 10808,
      "꺼져라": 10809,
      "당하고": 10810,
      "##의식": 10811,
      "##세상": 10812,
      "아깝다": 10813,
      "복지": 10814,
      "했다고": 10815,
      "참고": 10816,
      "##라스": 10817,
      "하여튼": 10818,
      "김일성": 10819,
      "##장에서": 10820,
[...]
